{"version": "1.0", "truncation": null, "padding": null, "added_tokens": [{"id": 0, "content": "<pad>", "single_word": false, "lstrip": false, "rstrip": false, "normalized": false, "special": true}, {"id": 1, "content": "<eos>", "single_word": false, "lstrip": false, "rstrip": false, "normalized": false, "special": true}, {"id": 2, "content": "<bos>", "single_word": false, "lstrip": false, "rstrip": false, "normalized": false, "special": true}, {"id": 3, "content": "<unk>", "single_word": false, "lstrip": false, "rstrip": false, "normalized": false, "special": true}, {"id": 4, "content": "<mask>", "single_word": false, "lstrip": false, "rstrip": false, "normalized": false, "special": true}, {"id": 46, "content": "<|tool>", "single_word": false, "lstrip": false, "rstrip": false, "normalized": false, "special": true}, {"id": 47, "content": "<tool|>", "single_word": false, "lstrip": false, "rstrip": false, "normalized": false, "special": true}, {"id": 48, "content": "<|tool_call>", "single_word": false, "lstrip": false, "rstrip": false, "normalized": false, "special": true}, {"id": 49, "content": "<tool_call|>", "single_word": false, "lstrip": false, "rstrip": false, "normalized": false, "special": true}, {"id": 50, "content": "<|tool_response>", "single_word": false, "lstrip": false, "rstrip": false, "normalized": false, "special": true}, {"id": 51, "content": "<tool_response|>", "single_word": false, "lstrip": false, "rstrip": false, "normalized": false, "special": true}, {"id": 52, "content": "<|\"|>", "single_word": false, "lstrip": false, "rstrip": false, "normalized": false, "special": true}, {"id": 98, "content": "<|think|>", "single_word": false, "lstrip": false, "rstrip": false, "normalized": false, "special": true}, {"id": 100, "content": "<|channel>", "single_word": false, "lstrip": false, "rstrip": false, "normalized": false, "special": true}, {"id": 101, "content": "<channel|>", "single_word": false, "lstrip": false, "rstrip": false, "normalized": false, "special": true}, {"id": 105, "content": "<|turn>", "single_word": false, "lstrip": false, "rstrip": false, "normalized": false, "special": true}, {"id": 106, "content": "<turn|>", "single_word": false, "lstrip": false, "rstrip": false, "normalized": false, "special": true}, {"id": 255999, "content": "<|image>", "single_word": false, "lstrip": false, "rstrip": false, "normalized": false, "special": true}, {"id": 256000, "content": "<|audio>", "single_word": false, "lstrip": false, "rstrip": false, "normalized": false, "special": true}, {"id": 258880, "content": "<|image|>", "single_word": false, "lstrip": false, "rstrip": false, "normalized": false, "special": true}, {"id": 258881, "content": "<|audio|>", "single_word": false, "lstrip": false, "rstrip": false, "normalized": false, "special": true}, {"id": 258882, "content": "<image|>", "single_word": false, "lstrip": false, "rstrip": false, "normalized": false, "special": true}, {"id": 258883, "content": "<audio|>", "single_word": false, "lstrip": false, "rstrip": false, "normalized": false, "special": true}, {"id": 258884, "content": "<|video|>", "single_word": false, "lstrip": false, "rstrip": false, "normalized": false, "special": true}], "normalizer": {"type": "Replace", "pattern": {"String": " "}, "content": "\u2581"}, "pre_tokenizer": {"type": "Split", "pattern": {"String": " "}, "behavior": "MergedWithPrevious", "invert": false}, "post_processor": {"type": "TemplateProcessing", "single": [{"Sequence": {"id": "A", "type_id": 0}}], "pair": [{"Sequence": {"id": "A", "type_id": 0}}, {"Sequence": {"id": "B", "type_id": 1}}], "special_tokens": {}}, "decoder": {"type": "Sequence", "decoders": [{"type": "Replace", "pattern": {"String": "\u2581"}, "content": " "}, {"type": "ByteFallback"}, {"type": "Fuse"}]}, "model": {"type": "BPE", "dropout": null, "unk_token": "<unk>", "continuing_subword_prefix": null, "end_of_word_suffix": null, "fuse_unk": true, "byte_fallback": true, "ignore_merges": false, "vocab": {"<pad>": 0, "<eos>": 1, "<bos>": 2, "<unk>": 3, "<mask>": 4, "[multimodal]": 5, "<unused0>": 6, "<unused1>": 7, "<unused2>": 8, "<unused3>": 9, "<unused4>": 10, "<unused5>": 11, "<unused6>": 12, "<unused7>": 13, "<unused8>": 14, "<unused9>": 15, "<unused10>": 16, "<unused11>": 17, "<unused12>": 18, "<unused13>": 19, "<unused14>": 20, "<unused15>": 21, "<unused16>": 22, "<unused17>": 23, "<unused18>": 24, "<unused19>": 25, "<unused20>": 26, "<unused21>": 27, "<unused22>": 28, "<unused23>": 29, "<unused24>": 30, "<unused25>": 31, "<unused26>": 32, "<unused27>": 33, "<unused28>": 34, "<unused29>": 35, "<unused30>": 36, "<unused31>": 37, "<unused32>": 38, "<unused33>": 39, "<unused34>": 40, "<unused35>": 41, "<unused36>": 42, "<unused37>": 43, "<unused38>": 44, "<unused39>": 45, "<|tool>": 46, "<tool|>": 47, "<|tool_call>": 48, "<tool_call|>": 49, "<|tool_response>": 50, "<tool_response|>": 51, "<|\"|>": 52, "<unused40>": 53, "<unused41>": 54, "<unused42>": 55, "<unused43>": 56, "<unused44>": 57, "<unused45>": 58, "<unused46>": 59, "<unused47>": 60, "<unused48>": 61, "<unused49>": 62, "<unused50>": 63, "<unused51>": 64, "<unused52>": 65, "<unused53>": 66, "<unused54>": 67, "<unused55>": 68, "<unused56>": 69, "<unused57>": 70, "<unused58>": 71, "<unused59>": 72, "<unused60>": 73, "<unused61>": 74, "<unused62>": 75, "<unused63>": 76, "<unused64>": 77, "<unused65>": 78, "<unused66>": 79, "<unused67>": 80, "<unused68>": 81, "<unused69>": 82, "<unused70>": 83, "<unused71>": 84, "<unused72>": 85, "<unused73>": 86, "<unused74>": 87, "<unused75>": 88, "<unused76>": 89, "<unused77>": 90, "<unused78>": 91, "<unused79>": 92, "<unused80>": 93, "<unused81>": 94, "<unused82>": 95, "<unused83>": 96, "<unused84>": 97, "<|think|>": 98, "<unused85>": 99, "<|channel>": 100, "<channel|>": 101, "<unused86>": 102, "<unused87>": 103, "<unused88>": 104, "<|turn>": 105, "<turn|>": 106, "\n": 107, "\n\n": 108, "\n\n\n": 109, "\n\n\n\n": 110, "\n\n\n\n\n": 111, "\n\n\n\n\n\n": 112, "\n\n\n\n\n\n\n": 113, "\n\n\n\n\n\n\n\n": 114, "\n\n\n\n\n\n\n\n\n": 115, "\n\n\n\n\n\n\n\n\n\n": 116, "\n\n\n\n\n\n\n\n\n\n\n": 117, "\n\n\n\n\n\n\n\n\n\n\n\n": 118, "\n\n\n\n\n\n\n\n\n\n\n\n\n": 119, "\n\n\n\n\n\n\n\n\n\n\n\n\n\n": 120, "\n\n\n\n\n\n\n\n\n\n\n\n\n\n\n": 121, "\n\n\n\n\n\n\n\n\n\n\n\n\n\n\n\n": 122, "\n\n\n\n\n\n\n\n\n\n\n\n\n\n\n\n\n": 123, "\n\n\n\n\n\n\n\n\n\n\n\n\n\n\n\n\n\n": 124, "\n\n\n\n\n\n\n\n\n\n\n\n\n\n\n\n\n\n\n": 125, "\n\n\n\n\n\n\n\n\n\n\n\n\n\n\n\n\n\n\n\n": 126, "\n\n\n\n\n\n\n\n\n\n\n\n\n\n\n\n\n\n\n\n\n": 127, "\n\n\n\n\n\n\n\n\n\n\n\n\n\n\n\n\n\n\n\n\n\n": 128, "\n\n\n\n\n\n\n\n\n\n\n\n\n\n\n\n\n\n\n\n\n\n\n": 129, "\n\n\n\n\n\n\n\n\n\n\n\n\n\n\n\n\n\n\n\n\n\n\n\n": 130, "\n\n\n\n\n\n\n\n\n\n\n\n\n\n\n\n\n\n\n\n\n\n\n\n\n": 131, "\n\n\n\n\n\n\n\n\n\n\n\n\n\n\n\n\n\n\n\n\n\n\n\n\n\n": 132, "\n\n\n\n\n\n\n\n\n\n\n\n\n\n\n\n\n\n\n\n\n\n\n\n\n\n\n": 133, "\n\n\n\n\n\n\n\n\n\n\n\n\n\n\n\n\n\n\n\n\n\n\n\n\n\n\n\n": 134, "\n\n\n\n\n\n\n\n\n\n\n\n\n\n\n\n\n\n\n\n\n\n\n\n\n\n\n\n\n": 135, "\n\n\n\n\n\n\n\n\n\n\n\n\n\n\n\n\n\n\n\n\n\n\n\n\n\n\n\n\n\n": 136, "\n\n\n\n\n\n\n\n\n\n\n\n\n\n\n\n\n\n\n\n\n\n\n\n\n\n\n\n\n\n\n": 137, "\u2581\u2581": 138, "\u2581\u2581\u2581": 139, "\u2581\u2581\u2581\u2581": 140, "\u2581\u2581\u2581\u2581\u2581": 141, "\u2581\u2581\u2581\u2581\u2581\u2581": 142, "\u2581\u2581\u2581\u2581\u2581\u2581\u2581": 143, "\u2581\u2581\u2581\u2581\u2581\u2581\u2581\u2581": 144, "\u2581\u2581\u2581\u2581\u2581\u2581\u2581\u2581\u2581": 145, "\u2581\u2581\u2581\u2581\u2581\u2581\u2581\u2581\u2581\u2581": 146, "\u2581\u2581\u2581\u2581\u2581\u2581\u2581\u2581\u2581\u2581\u2581": 147, "\u2581\u2581\u2581\u2581\u2581\u2581\u2581\u2581\u2581\u2581\u2581\u2581": 148, "\u2581\u2581\u2581\u2581\u2581\u2581\u2581\u2581\u2581\u2581\u2581\u2581\u2581": 149, "\u2581\u2581\u2581\u2581\u2581\u2581\u2581\u2581\u2581\u2581\u2581\u2581\u2581\u2581": 150, "\u2581\u2581\u2581\u2581\u2581\u2581\u2581\u2581\u2581\u2581\u2581\u2581\u2581\u2581\u2581": 151, "\u2581\u2581\u2581\u2581\u2581\u2581\u2581\u2581\u2581\u2581\u2581\u2581\u2581\u2581\u2581\u2581": 152, "\u2581\u2581\u2581\u2581\u2581\u2581\u2581\u2581\u2581\u2581\u2581\u2581\u2581\u2581\u2581\u2581\u2581": 153, "\u2581\u2581\u2581\u2581\u2581\u2581\u2581\u2581\u2581\u2581\u2581\u2581\u2581\u2581\u2581\u2581\u2581\u2581": 154, "\u2581\u2581\u2581\u2581\u2581\u2581\u2581\u2581\u2581\u2581\u2581\u2581\u2581\u2581\u2581\u2581\u2581\u2581\u2581": 155, "\u2581\u2581\u2581\u2581\u2581\u2581\u2581\u2581\u2581\u2581\u2581\u2581\u2581\u2581\u2581\u2581\u2581\u2581\u2581\u2581": 156, "\u2581\u2581\u2581\u2581\u2581\u2581\u2581\u2581\u2581\u2581\u2581\u2581\u2581\u2581\u2581\u2581\u2581\u2581\u2581\u2581\u2581": 157, "\u2581\u2581\u2581\u2581\u2581\u2581\u2581\u2581\u2581\u2581\u2581\u2581\u2581\u2581\u2581\u2581\u2581\u2581\u2581\u2581\u2581\u2581": 158, "\u2581\u2581\u2581\u2581\u2581\u2581\u2581\u2581\u2581\u2581\u2581\u2581\u2581\u2581\u2581\u2581\u2581\u2581\u2581\u2581\u2581\u2581\u2581": 159, "\u2581\u2581\u2581\u2581\u2581\u2581\u2581\u2581\u2581\u2581\u2581\u2581\u2581\u2581\u2581\u2581\u2581\u2581\u2581\u2581\u2581\u2581\u2581\u2581": 160, "\u2581\u2581\u2581\u2581\u2581\u2581\u2581\u2581\u2581\u2581\u2581\u2581\u2581\u2581\u2581\u2581\u2581\u2581\u2581\u2581\u2581\u2581\u2581\u2581\u2581": 161, "\u2581\u2581\u2581\u2581\u2581\u2581\u2581\u2581\u2581\u2581\u2581\u2581\u2581\u2581\u2581\u2581\u2581\u2581\u2581\u2581\u2581\u2581\u2581\u2581\u2581\u2581": 162, "\u2581\u2581\u2581\u2581\u2581\u2581\u2581\u2581\u2581\u2581\u2581\u2581\u2581\u2581\u2581\u2581\u2581\u2581\u2581\u2581\u2581\u2581\u2581\u2581\u2581\u2581\u2581": 163, "\u2581\u2581\u2581\u2581\u2581\u2581\u2581\u2581\u2581\u2581\u2581\u2581\u2581\u2581\u2581\u2581\u2581\u2581\u2581\u2581\u2581\u2581\u2581\u2581\u2581\u2581\u2581\u2581": 164, "\u2581\u2581\u2581\u2581\u2581\u2581\u2581\u2581\u2581\u2581\u2581\u2581\u2581\u2581\u2581\u2581\u2581\u2581\u2581\u2581\u2581\u2581\u2581\u2581\u2581\u2581\u2581\u2581\u2581": 165, "\u2581\u2581\u2581\u2581\u2581\u2581\u2581\u2581\u2581\u2581\u2581\u2581\u2581\u2581\u2581\u2581\u2581\u2581\u2581\u2581\u2581\u2581\u2581\u2581\u2581\u2581\u2581\u2581\u2581\u2581": 166, "\u2581\u2581\u2581\u2581\u2581\u2581\u2581\u2581\u2581\u2581\u2581\u2581\u2581\u2581\u2581\u2581\u2581\u2581\u2581\u2581\u2581\u2581\u2581\u2581\u2581\u2581\u2581\u2581\u2581\u2581\u2581": 167, "<table>": 168, "<caption>": 169, "<thead>": 170, "<tbody>": 171, "<tfoot>": 172, "<tr>": 173, "<th>": 174, "<td>": 175, "</table>": 176, "</caption>": 177, "</thead>": 178, "</tbody>": 179, "</tfoot>": 180, "</tr>": 181, "</th>": 182, "</td>": 183, "<h1>": 184, "<h2>": 185, "<h3>": 186, "<h4>": 187, "<h5>": 188, "<h6>": 189, "<blockquote>": 190, "</h1>": 191, "</h2>": 192, "</h3>": 193, "</h4>": 194, "</h5>": 195, "</h6>": 196, "</blockquote>": 197, "<strong>": 198, "<em>": 199, "<b>": 200, "<i>": 201, "<u>": 202, "<s>": 203, "<sub>": 204, "<sup>": 205, "<code>": 206, "</strong>": 207, "</em>": 208, "</b>": 209, "</i>": 210, "</u>": 211, "</s>": 212, "</sub>": 213, "</sup>": 214, "</code>": 215, "<a>": 216, "<html>": 217, "<body>": 218, "<img>": 219, "<span>": 220, "<bbox>": 221, "<ul>": 222, "<li>": 223, "<div>": 224, "<iframe>": 225, "<footer>": 226, "</a>": 227, "</html>": 228, "</body>": 229, "</img>": 230, "</span>": 231, "</bbox>": 232, "</ul>": 233, "</li>": 234, "</div>": 235, "</iframe>": 236, "</footer>": 237, "<0x00>": 238, "<0x01>": 239, "<0x02>": 240, "<0x03>": 241, "<0x04>": 242, "<0x05>": 243, "<0x06>": 244, "<0x07>": 245, "<0x08>": 246, "<0x09>": 247, "<0x0A>": 248, "<0x0B>": 249, "<0x0C>": 250, "<0x0D>": 251, "<0x0E>": 252, "<0x0F>": 253, "<0x10>": 254, "<0x11>": 255, "<0x12>": 256, "<0x13>": 257, "<0x14>": 258, "<0x15>": 259, "<0x16>": 260, "<0x17>": 261, "<0x18>": 262, "<0x19>": 263, "<0x1A>": 264, "<0x1B>": 265, "<0x1C>": 266, "<0x1D>": 267, "<0x1E>": 268, "<0x1F>": 269, "<0x20>": 270, "<0x21>": 271, "<0x22>": 272, "<0x23>": 273, "<0x24>": 274, "<0x25>": 275, "<0x26>": 276, "<0x27>": 277, "<0x28>": 278, "<0x29>": 279, "<0x2A>": 280, "<0x2B>": 281, "<0x2C>": 282, "<0x2D>": 283, "<0x2E>": 284, "<0x2F>": 285, "<0x30>": 286, "<0x31>": 287, "<0x32>": 288, "<0x33>": 289, "<0x34>": 290, "<0x35>": 291, "<0x36>": 292, "<0x37>": 293, "<0x38>": 294, "<0x39>": 295, "<0x3A>": 296, "<0x3B>": 297, "<0x3C>": 298, "<0x3D>": 299, "<0x3E>": 300, "<0x3F>": 301, "<0x40>": 302, "<0x41>": 303, "<0x42>": 304, "<0x43>": 305, "<0x44>": 306, "<0x45>": 307, "<0x46>": 308, "<0x47>": 309, "<0x48>": 310, "<0x49>": 311, "<0x4A>": 312, "<0x4B>": 313, "<0x4C>": 314, "<0x4D>": 315, "<0x4E>": 316, "<0x4F>": 317, "<0x50>": 318, "<0x51>": 319, "<0x52>": 320, "<0x53>": 321, "<0x54>": 322, "<0x55>": 323, "<0x56>": 324, "<0x57>": 325, "<0x58>": 326, "<0x59>": 327, "<0x5A>": 328, "<0x5B>": 329, "<0x5C>": 330, "<0x5D>": 331, "<0x5E>": 332, "<0x5F>": 333, "<0x60>": 334, "<0x61>": 335, "<0x62>": 336, "<0x63>": 337, "<0x64>": 338, "<0x65>": 339, "<0x66>": 340, "<0x67>": 341, "<0x68>": 342, "<0x69>": 343, "<0x6A>": 344, "<0x6B>": 345, "<0x6C>": 346, "<0x6D>": 347, "<0x6E>": 348, "<0x6F>": 349, "<0x70>": 350, "<0x71>": 351, "<0x72>": 352, "<0x73>": 353, "<0x74>": 354, "<0x75>": 355, "<0x76>": 356, "<0x77>": 357, "<0x78>": 358, "<0x79>": 359, "<0x7A>": 360, "<0x7B>": 361, "<0x7C>": 362, "<0x7D>": 363, "<0x7E>": 364, "<0x7F>": 365, "<0x80>": 366, "<0x81>": 367, "<0x82>": 368, "<0x83>": 369, "<0x84>": 370, "<0x85>": 371, "<0x86>": 372, "<0x87>": 373, "<0x88>": 374, "<0x89>": 375, "<0x8A>": 376, "<0x8B>": 377, "<0x8C>": 378, "<0x8D>": 379, "<0x8E>": 380, "<0x8F>": 381, "<0x90>": 382, "<0x91>": 383, "<0x92>": 384, "<0x93>": 385, "<0x94>": 386, "<0x95>": 387, "<0x96>": 388, "<0x97>": 389, "<0x98>": 390, "<0x99>": 391, "<0x9A>": 392, "<0x9B>": 393, "<0x9C>": 394, "<0x9D>": 395, "<0x9E>": 396, "<0x9F>": 397, "<0xA0>": 398, "<0xA1>": 399, "<0xA2>": 400, "<0xA3>": 401, "<0xA4>": 402, "<0xA5>": 403, "<0xA6>": 404, "<0xA7>": 405, "<0xA8>": 406, "<0xA9>": 407, "<0xAA>": 408, "<0xAB>": 409, "<0xAC>": 410, "<0xAD>": 411, "<0xAE>": 412, "<0xAF>": 413, "<0xB0>": 414, "<0xB1>": 415, "<0xB2>": 416, "<0xB3>": 417, "<0xB4>": 418, "<0xB5>": 419, "<0xB6>": 420, "<0xB7>": 421, "<0xB8>": 422, "<0xB9>": 423, "<0xBA>": 424, "<0xBB>": 425, "<0xBC>": 426, "<0xBD>": 427, "<0xBE>": 428, "<0xBF>": 429, "<0xC0>": 430, "<0xC1>": 431, "<0xC2>": 432, "<0xC3>": 433, "<0xC4>": 434, "<0xC5>": 435, "<0xC6>": 436, "<0xC7>": 437, "<0xC8>": 438, "<0xC9>": 439, "<0xCA>": 440, "<0xCB>": 441, "<0xCC>": 442, "<0xCD>": 443, "<0xCE>": 444, "<0xCF>": 445, "<0xD0>": 446, "<0xD1>": 447, "<0xD2>": 448, "<0xD3>": 449, "<0xD4>": 450, "<0xD5>": 451, "<0xD6>": 452, "<0xD7>": 453, "<0xD8>": 454, "<0xD9>": 455, "<0xDA>": 456, "<0xDB>": 457, "<0xDC>": 458, "<0xDD>": 459, "<0xDE>": 460, "<0xDF>": 461, "<0xE0>": 462, "<0xE1>": 463, "<0xE2>": 464, "<0xE3>": 465, "<0xE4>": 466, "<0xE5>": 467, "<0xE6>": 468, "<0xE7>": 469, "<0xE8>": 470, "<0xE9>": 471, "<0xEA>": 472, "<0xEB>": 473, "<0xEC>": 474, "<0xED>": 475, "<0xEE>": 476, "<0xEF>": 477, "<0xF0>": 478, "<0xF1>": 479, "<0xF2>": 480, "<0xF3>": 481, "<0xF4>": 482, "<0xF5>": 483, "<0xF6>": 484, "<0xF7>": 485, "<0xF8>": 486, "<0xF9>": 487, "<0xFA>": 488, "<0xFB>": 489, "<0xFC>": 490, "<0xFD>": 491, "<0xFE>": 492, "<0xFF>": 493, "\u2581t": 494, "in": 495, "\u2581a": 496, "er": 497, "on": 498, "he": 499, "re": 500, "en": 501, "at": 502, "\u2581s": 503, "or": 504, "\u2581c": 505, "\u2581the": 506, "es": 507, "an": 508, "it": 509, "\u2581p": 510, "is": 511, "\u2581o": 512, "\u2581d": 513, "al": 514, "\u2581w": 515, "ar": 516, "\u2581f": 517, "\u2581b": 518, "le": 519, "\u2581m": 520, "ou": 521, "ing": 522, "nd": 523, "ed": 524, "ic": 525, "ion": 526, "as": 527, "\u2581in": 528, "\u2581of": 529, "ro": 530, "\u2581to": 531, "\u2581and": 532, "ent": 533, "\u2581h": 534, "el": 535, "et": 536, "\u2581l": 537, "\u2581n": 538, "ct": 539, "st": 540, "\u2581th": 541, "om": 542, "il": 543, "\u2581re": 544, "\u2581e": 545, "am": 546, "id": 547, "im": 548, "\u2581g": 549, "ut": 550, "ol": 551, "ac": 552, "ad": 553, "ig": 554, "\u2581S": 555, "ur": 556, "ot": 557, "\u2581T": 558, "\u2581u": 559, "ve": 560, "se": 561, "\u2581A": 562, "\u2581is": 563, "\u2581I": 564, "\u2581C": 565, "\u2581v": 566, "ation": 567, "\u2581(": 568, "\u2581de": 569, "\u2581y": 570, "ay": 571, "ow": 572, "\u2581for": 573, "ch": 574, "ul": 575, "qu": 576, "\u2581be": 577, "\u2581=": 578, "\u2581st": 579, "\u2581on": 580, "em": 581, "ag": 582, "ir": 583, "if": 584, "os": 585, "ly": 586, "\u2581M": 587, "ce": 588, "ter": 589, "od": 590, "\u2581con": 591, "ith": 592, "\u2581P": 593, "th": 594, "ver": 595, "ab": 596, "um": 597, "est": 598, "\u2581\u0915": 599, "\u2581that": 600, "ra": 601, "un": 602, "\u2581B": 603, "ri": 604, "us": 605, "ate": 606, "\u2581with": 607, "\u2581pro": 608, "\u2581$": 609, "\u2581al": 610, "\u2581you": 611, "pp": 612, "ht": 613, "\u2581an": 614, "\u2581wh": 615, "ers": 616, "ist": 617, "\u2581as": 618, "res": 619, "\u2581k": 620, "\u2581\\": 621, "\u2581D": 622, "\u2581\"": 623, "and": 624, "\u2581it": 625, ");": 626, "ere": 627, "ak": 628, "oc": 629, "\u2581R": 630, "\u2581com": 631, "ort": 632, "\u2581F": 633, "ess": 634, "pe": 635, "\u2581se": 636, "\u2581r": 637, "ant": 638, "\u2581L": 639, "\u2581H": 640, "ew": 641, "\u2581{": 642, "end": 643, "ill": 644, "\u2581E": 645, "\u2581N": 646, "ction": 647, "iv": 648, "\u2581W": 649, "op": 650, "ath": 651, "\u2581ex": 652, "\u2581or": 653, "te": 654, "\u2581<": 655, "ight": 656, "\u2581at": 657, "ment": 658, "\u2581are": 659, "rom": 660, "art": 661, "ain": 662, "ore": 663, "\u2581su": 664, "ity": 665, "nt": 666, "\u2581G": 667, "\u2581he": 668, "\u2581The": 669, "ap": 670, "ld": 671, "\u2581this": 672, "\u2581j": 673, "\u2581le": 674, "pl": 675, "age": 676, "\u2581ch": 677, "\u2581ha": 678, "og": 679, "ok": 680, "_{": 681, "\u2581}": 682, "ame": 683, "\u2581by": 684, "iz": 685, "\u2581\u0939": 686, "ue": 687, "ine": 688, "ud": 689, "\u2581qu": 690, "\u2581was": 691, "\u2581we": 692, "pt": 693, "ure": 694, "ies": 695, "\u2581en": 696, "ack": 697, "ang": 698, "\u2581from": 699, "our": 700, "\u2581\u0938": 701, "ass": 702, "ie": 703, "\u2581sh": 704, "ive": 705, "ial": 706, "ust": 707, "\u2581O": 708, "ub": 709, "rou": 710, "\u2581not": 711, "all": 712, "ell": 713, "ard": 714, "//": 715, "ex": 716, "ect": 717, "=\"": 718, "\u2581tr": 719, "int": 720, "per": 721, "ia": 722, "\u2581un": 723, "ind": 724, "out": 725, "--": 726, "ik": 727, "port": 728, "\u2581pl": 729, "\u2581J": 730, "ost": 731, "\u2581cl": 732, "are": 733, "ich": 734, "\u2581have": 735, "ff": 736, "av": 737, "cl": 738, "\u2581\u092e": 739, "\u2581can": 740, "orm": 741, "able": 742, "ans": 743, "\u2581\u0627": 744, "ult": 745, "con": 746, "math": 747, "ib": 748, "\u2581U": 749, "ire": 750, "\u2581K": 751, "ast": 752, "\u2581-": 753, "ide": 754, "ile": 755, "\u2581'": 756, "\u2581im": 757, "\u2581\u092a": 758, "\u2581la": 759, "ip": 760, "ome": 761, "ice": 762, "\u2581ab": 763, "ime": 764, "ft": 765, "\u2581res": 766, "cc": 767, "\u2581if": 768, ").": 769, "\u2581ne": 770, "ould": 771, "\u2581ad": 772, "act": 773, "ated": 774, "\u2581us": 775, "\u2581do": 776, "\u2581comp": 777, "ord": 778, "),": 779, "du": 780, "ase": 781, "\u2581V": 782, "\u2581.": 783, "\u2581all": 784, "ite": 785, "\u2581me": 786, "ge": 787, "lic": 788, "hen": 789, "^{": 790, "ph": 791, "ace": 792, "ber": 793, "urn": 794, "\u2581will": 795, "ign": 796, "ong": 797, "\u2581cont": 798, "\u2581In": 799, "ical": 800, "\u2581int": 801, "ork": 802, "ear": 803, "ition": 804, "ata": 805, "ous": 806, "\u2581Th": 807, "\u2581*": 808, "row": 809, "\u2581per": 810, "one": 811, "rm": 812, "ach": 813, "so": 814, "\u2581has": 815, "ru": 816, "\u2581go": 817, "The": 818, "ence": 819, "\u2581\u0939\u0948": 820, "fer": 821, "\u2581your": 822, "}$": 823, "ry": 824, "()": 825, "au": 826, "\",": 827, "get": 828, "ng": 829, "ont": 830, "ance": 831, "ens": 832, "\u2581&": 833, "\u2581so": 834, "ary": 835, "\u0947\u0902": 836, "\u2581which": 837, "ep": 838, "ther": 839, "\u2581but": 840, "ma": 841, "\u2581St": 842, "\u2581\u043f": 843, "lo": 844, "form": 845, "\u092f\u093e": 846, "ations": 847, "ount": 848, "\u094d\u0930": 849, "\u2581app": 850, "ring": 851, "ress": 852, "\u2581des": 853, "com": 854, "\u2581out": 855, "..": 856, "\u09be\u09b0": 857, "\u2581i": 858, "ll": 859, "gh": 860, "\u2581new": 861, "\u2581el": 862, "\u2581ar": 863, "\u2581dis": 864, "\u2581pr": 865, "ne": 866, "\u093e\u0930": 867, "mathrm": 868, "ov": 869, "\u2581[": 870, "\u0441\u0442": 871, "\u2581up": 872, "ake": 873, "\u2581$\\": 874, "ook": 875, "ents": 876, "\u2581pre": 877, "ions": 878, "erv": 879, "\u2581man": 880, "\u2581\u0995": 881, "\u2581\u092c": 882, "elf": 883, "ual": 884, "(\"": 885, "\u2581one": 886, "turn": 887, "ose": 888, "\u2581\u091c": 889, "\u2581sa": 890, "ask": 891, "\u2581sp": 892, "de": 893, "St": 894, "\u2581Y": 895, "\u2581\u0915\u0947": 896, "io": 897, "right": 898, "ark": 899, "\u2581+": 900, "\u2581they": 901, "In": 902, "xt": 903, "\u2581z": 904, "\">": 905, "cre": 906, "ert": 907, "\u2581col": 908, "\u2581\u0432": 909, "\u2581their": 910, "\u043d\u0430": 911, "\u2581part": 912, "ors": 913, "\u2581his": 914, "vel": 915, "ext": 916, "ail": 917, "ater": 918, "\u2581more": 919, "\u2581\u0627\u0644": 920, "\u0928\u0947": 921, "\u2581\u09b8": 922, "enc": 923, "\u043d\u043e": 924, "yst": 925, "\u2581te": 926, "\u2581\u0906": 927, "ject": 928, "\u2581que": 929, "ree": 930, "own": 931, "ck": 932, "ory": 933, "iew": 934, "\u2581ro": 935, "ick": 936, "\u2581\u0441": 937, "ild": 938, "\u2581inter": 939, "\u2581\u0935": 940, "\u2581und": 941, "ple": 942, "che": 943, "\u2581par": 944, "ock": 945, "\u2581\u09ac": 946, "old": 947, "\u043d\u0438": 948, "her": 949, "\u2581\u0926": 950, "\u2581no": 951, "eg": 952, "ely": 953, "</": 954, "\u2581\u09aa": 955, "\u0440\u0430": 956, "ah": 957, "}\\": 958, "\u2581ev": 959, "ound": 960, "ink": 961, "\u2581\u0905": 962, "',": 963, "\u2581were": 964, "\u2581/": 965, "pon": 966, "\u2581ag": 967, "lect": 968, "ize": 969, "ient": 970, "\u2581Ch": 971, "pr": 972, "\u2581//": 973, "\u2581get": 974, "ps": 975, "low": 976, "we": 977, "ery": 978, "round": 979, "ari": 980, "\u2581work": 981, "ob": 982, "\u09c7\u09b0": 983, "ode": 984, "ike": 985, "ys": 986, "ublic": 987, "\u2581\u0932": 988, "left": 989, "\u2581time": 990, "led": 991, "\u2581also": 992, "\u2581there": 993, "\u2581return": 994, "\u2581\u0645": 995, "ype": 996, "\u2581#": 997, "ystem": 998, "\u2581\u201c": 999, "put": 1000, "\u2581di": 1001, "erm": 1002, "\u2581about": 1003, "ays": 1004, "text": 1005, "\u2581am": 1006, "ade": 1007, "\u2581et": 1008, "\u2581est": 1009, "\u2581been": 1010, "\u09cd\u09b0": 1011, "\u2581class": 1012, "ings": 1013, "wo": 1014, "\u2581who": 1015, "\u2581val": 1016, "\u2581:": 1017, "**": 1018, "\u2581\u092e\u0947\u0902": 1019, "sp": 1020, "ric": 1021, "\u2581pe": 1022, "\u2581our": 1023, "\u2581over": 1024, "set": 1025, "ener": 1026, "\u2581any": 1027, "\u2581co": 1028, "\u2581ob": 1029, "\u2581It": 1030, "\u2581,": 1031, "\u2581other": 1032, "('": 1033, "ove": 1034, "irst": 1035, "\u2581ind": 1036, "ian": 1037, "\u0440\u043e": 1038, "\u2581\u0930": 1039, "----": 1040, "\u2581my": 1041, "mer": 1042, "ram": 1043, "ish": 1044, "pro": 1045, "unction": 1046, "\u2581spe": 1047, "up": 1048, "inal": 1049, "ec": 1050, "\u2581year": 1051, "anc": 1052, "\u2581had": 1053, "\u2581kn": 1054, "\u2581acc": 1055, "\u2581when": 1056, "\u2581\u06a9": 1057, "\u043a\u043e": 1058, "reat": 1059, "\u2581sc": 1060, "\u2581its": 1061, "\u0442\u043e": 1062, "\u2581back": 1063, "eth": 1064, "oken": 1065, "clud": 1066, "\u2581ph": 1067, "ull": 1068, "\u2581\u0924": 1069, "\u2581some": 1070, "to": 1071, "ey": 1072, "rib": 1073, "les": 1074, "ss": 1075, "\u2581set": 1076, "\u09cd\u09af": 1077, "oint": 1078, "\u2581\u0438": 1079, "mask": 1080, "ific": 1081, "\u2581than": 1082, "\":": 1083, "iss": 1084, "\u0930\u094d": 1085, "();": 1086, "itt": 1087, "oy": 1088, "ER": 1089, "ates": 1090, "\u2581them": 1091, "\u2581em": 1092, "\u2581would": 1093, "eng": 1094, "\u2581\u0928": 1095, "\u2581def": 1096, "cess": 1097, "\u2581dif": 1098, "ier": 1099, "\u2581\u0628": 1100, "fter": 1101, "iel": 1102, "\u2581comm": 1103, "\u2581\u043e": 1104, "\u2581bl": 1105, "import": 1106, "igh": 1107, "ton": 1108, "\u2581|": 1109, "app": 1110, "val": 1111, "ug": 1112, "\u094b\u0902": 1113, "token": 1114, "\u2581es": 1115, "\u2581her": 1116, "ise": 1117, "\u2581pos": 1118, "ange": 1119, "\u2581mod": 1120, "vers": 1121, "\u2581cons": 1122, "\u2581x": 1123, "ax": 1124, "\u2581rec": 1125, ".,": 1126, "\u2581fe": 1127, "der": 1128, "ek": 1129, "\u2581produ": 1130, "\u2581into": 1131, "ann": 1132, "\u2581like": 1133, "\u2581act": 1134, "\u2581off": 1135, "und": 1136, "\u2581\u098f": 1137, "\u2581add": 1138, "\u0924\u093e": 1139, "ON": 1140, "\u09be\u09a8": 1141, "\u2581const": 1142, "cept": 1143, "\u2581what": 1144, "fr": 1145, "\u2581bet": 1146, "\u2581\u0915\u0930": 1147, "ble": 1148, "\u2581may": 1149, "\u0440\u0435": 1150, "\u2581rel": 1151, "\u2581num": 1152, "ular": 1153, "ally": 1154, "ement": 1155, "\u2581two": 1156, "\u2581reg": 1157, "very": 1158, "\u2581sub": 1159, "->": 1160, "\u2581use": 1161, "\u2581del": 1162, "pos": 1163, "\u2581just": 1164, "\u2581\u0915\u0940": 1165, "sc": 1166, "\u2581\u0434": 1167, "tr": 1168, "ox": 1169, "}{": 1170, "\u2581first": 1171, "ef": 1172, "\u043a\u0430": 1173, "\u2581This": 1174, "\u2581ent": 1175, "\u2581said": 1176, "ym": 1177, "ied": 1178, "sh": 1179, "pect": 1180, "ank": 1181, "\u2581\u0986": 1182, "\u2581form": 1183, "let": 1184, "ood": 1185, "\u2581only": 1186, "arg": 1187, "\u2581ass": 1188, "\u2581gr": 1189, "ons": 1190, "\u2581We": 1191, "red": 1192, "err": 1193, "ating": 1194, "olog": 1195, "aj": 1196, "\u2581bu": 1197, "\u2581\u0915\u094b": 1198, "ause": 1199, "\u2581\u0907": 1200, "name": 1201, "\u2581need": 1202, "ale": 1203, "IN": 1204, "ix": 1205, "\u2581bec": 1206, "\u2581trans": 1207, "\u2581under": 1208, "ool": 1209, "ict": 1210, "\u0bcd\u0b95": 1211, "\u2581\u0648": 1212, "ract": 1213, "Th": 1214, "par": 1215, "\u09af\u09bc": 1216, "\u2581how": 1217, "\u2581prov": 1218, "\u09cd\u09a4": 1219, "tt": 1220, "\u2581requ": 1221, "uch": 1222, "))": 1223, "==": 1224, "az": 1225, "\u2581ac": 1226, "\u2581att": 1227, "ung": 1228, "ics": 1229, "ments": 1230, "\u0433\u043e": 1231, "\u0432\u0430": 1232, "\u2581\u0915\u093e": 1233, "tern": 1234, "oth": 1235, "ities": 1236, "\u2581public": 1237, "\u0928\u093e": 1238, "\u2581these": 1239, "riv": 1240, "\u0435\u043d": 1241, "ople": 1242, "\u2581\u09b9": 1243, "}^{": 1244, "\u043b\u0438": 1245, "ta": 1246, "ility": 1247, "\u2581\u0938\u0947": 1248, "que": 1249, "ner": 1250, "\u2581==": 1251, "\u2581\u0917": 1252, "ible": 1253, "ray": 1254, "\u2581Pro": 1255, "rain": 1256, "line": 1257, "its": 1258, "ield": 1259, "vent": 1260, "ning": 1261, "\u2581data": 1262, "},": 1263, "ures": 1264, "\u2581self": 1265, "rough": 1266, "\u2581stat": 1267, "\u2581pol": 1268, "__": 1269, "\u2581sur": 1270, "\u2581\u2013": 1271, "\u2581\u09ae": 1272, "\u2581che": 1273, "ren": 1274, "ful": 1275, "\u2581Re": 1276, "ator": 1277, "\u2581pres": 1278, "\u2581\u09a8": 1279, "ative": 1280, "\u2581know": 1281, "add": 1282, "ages": 1283, "\u00f3n": 1284, "ution": 1285, "\u2581Un": 1286, "ci": 1287, "\u2581such": 1288, "mo": 1289, "\u2581det": 1290, "\u094d\u092f": 1291, "\u2581function": 1292, "\u2581He": 1293, "als": 1294, "\u2581car": 1295, "atch": 1296, "\u0440\u0438": 1297, "\u2581where": 1298, "\u2581then": 1299, "\u2581sol": 1300, "\u2581Com": 1301, "rit": 1302, "ues": 1303, "\u2581she": 1304, "\u0442\u0435": 1305, "\u2581\u090f": 1306, "}_{": 1307, "\u2581after": 1308, "any": 1309, "ond": 1310, "\u2581\u043f\u043e": 1311, "\u2581\u0915\u093f": 1312, "\u2581cur": 1313, "(\\": 1314, "ower": 1315, "ash": 1316, "\u2581stud": 1317, "\u2581\u043c": 1318, "erson": 1319, "\u2581eff": 1320, "fore": 1321, "\u2581min": 1322, "\u093f\u0915": 1323, "\u2581rem": 1324, "ident": 1325, "\u2581inst": 1326, "mi": 1327, "ute": 1328, "\u0442\u0430": 1329, "\u2581\u09a4": 1330, "\u2581people": 1331, "\u2581\u092d": 1332, "\u2581\u043d\u0430": 1333, "\u2581\u0995\u09b0": 1334, "\u2581differ": 1335, "me": 1336, "\u043d\u0435": 1337, "arch": 1338, "\u2581Se": 1339, "of": 1340, "\u2581\u0909": 1341, "\u094d\u092f\u093e": 1342, "\u2581through": 1343, "rent": 1344, "\u2581end": 1345, "\u2581most": 1346, "ser": 1347, "aw": 1348, "\u2581supp": 1349, "\u043b\u044c": 1350, "ough": 1351, "hat": 1352, "ational": 1353, "\u2581result": 1354, "\u0bcd\u0ba4": 1355, "ms": 1356, "RE": 1357, "ices": 1358, "\u0938\u094d": 1359, "\u2581cor": 1360, "ased": 1361, "ider": 1362, "ty": 1363, "co": 1364, "ins": 1365, "\u2581Q": 1366, "\u2581\u09a6": 1367, "\u2581spec": 1368, "\u2581ser": 1369, ")$": 1370, "hed": 1371, "\u2581includ": 1372, "\")": 1373, "\u2581should": 1374, "AT": 1375, "\u2581serv": 1376, "roup": 1377, "\u2581fl": 1378, "\u2581inv": 1379, "\u043b\u0430": 1380, "\u2581ve": 1381, "\u2581aut": 1382, "ollow": 1383, "\u2581\u0914": 1384, "\u2581look": 1385, "\u2581make": 1386, "min": 1387, "\u2581well": 1388, "ai": 1389, "...": 1390, "ground": 1391, "\u2581@": 1392, "ST": 1393, "\u2581hel": 1394, "\u2581op": 1395, "ature": 1396, "\u093e\u0928": 1397, "uc": 1398, "read": 1399, "\u2581sim": 1400, "\u2581very": 1401, "\u2581\u0914\u0930": 1402, "ily": 1403, "air": 1404, "ript": 1405, "\u2581sm": 1406, "\u2581show": 1407, "##": 1408, "\u2581\u0111": 1409, "\u0bae\u0bcd": 1410, "://": 1411, "ts": 1412, "\u2581loc": 1413, "amp": 1414, "uring": 1415, "els": 1416, "wn": 1417, "\u2581every": 1418, "\u2581import": 1419, "frac": 1420, "\u2581cal": 1421, "\u2581av": 1422, "\u0932\u093e": 1423, "cent": 1424, "AR": 1425, "ces": 1426, "rol": 1427, "\u2581equ": 1428, "\u2581Al": 1429, "raph": 1430, "imes": 1431, "ument": 1432, "oid": 1433, "ious": 1434, "ruct": 1435, "\u0627\u0646": 1436, "the": 1437, "ado": 1438, "EN": 1439, "\u2581long": 1440, "\u2581play": 1441, "\u2581dist": 1442, "\");": 1443, "gan": 1444, "\u0915\u094d": 1445, "ern": 1446, "\u2581right": 1447, "\u2581mem": 1448, "\u2581ext": 1449, "\u2581los": 1450, "\u2581could": 1451, "\u2581And": 1452, "\u2581\u0985": 1453, "\u2581</": 1454, "\u2581An": 1455, "\u2581used": 1456, "br": 1457, "\u2581system": 1458, "\u2581ra": 1459, "\u2581see": 1460, "\u2581want": 1461, "\u2581wor": 1462, "\u2581name": 1463, "\u043b\u0435": 1464, "ced": 1465, "ween": 1466, "velop": 1467, "\u043d\u044b": 1468, "\u2581\u0431": 1469, "\u2581med": 1470, "irect": 1471, "ines": 1472, "):": 1473, "aut": 1474, "col": 1475, "ward": 1476, "\u2581=>": 1477, "ave": 1478, "Re": 1479, "::": 1480, "\u2581tem": 1481, "ife": 1482, "\u0627\u0644": 1483, "yn": 1484, "\u2581\u092a\u094d\u0930": 1485, "\u2581gener": 1486, "lement": 1487, "cond": 1488, "Pro": 1489, "uk": 1490, "\u2581Z": 1491, "\u2581now": 1492, "ting": 1493, "\u2581high": 1494, "\u2581\u091a": 1495, "day": 1496, "\u2581exper": 1497, "ots": 1498, "ada": 1499, "\u2581follow": 1500, "\u2581\u0939\u094b": 1501, "\u2581start": 1502, "\u2581mon": 1503, "ven": 1504, "Con": 1505, "ho": 1506, "ctions": 1507, "self": 1508, "It": 1509, "\u2581lo": 1510, "\u2581ed": 1511, "\u2581cre": 1512, "yle": 1513, "Im": 1514, "\u2581him": 1515, "data": 1516, "i\u00f3n": 1517, "\u2581years": 1518, "\u2581sign": 1519, "\u2581exp": 1520, "\u2581dec": 1521, "oun": 1522, "\u2581point": 1523, "\u2581vari": 1524, "amb": 1525, "\u2581hand": 1526, "\u2581count": 1527, "ml": 1528, "\u2581\u0437": 1529, "ody": 1530, "\u2581let": 1531, "fig": 1532, "\u2581gu": 1533, "\u2581between": 1534, "\u2581good": 1535, "AN": 1536, "\u2581don": 1537, "other": 1538, "\u2581\u092a\u0930": 1539, "\u2581str": 1540, "\u09c7\u09a8": 1541, "yl": 1542, "view": 1543, "tain": 1544, "\u2581\u0939\u0948\u0902": 1545, "\u2581each": 1546, "\u2581because": 1547, "\u2581number": 1548, "\u2581\u062a": 1549, "\u2581value": 1550, "\u2581many": 1551, "ited": 1552, "be": 1553, "li": 1554, "play": 1555, "\u2581der": 1556, "aking": 1557, "Com": 1558, "\u2581\u00e9": 1559, "\u2581\u092f": 1560, "\u2581\u0936": 1561, "man": 1562, "\u2581\u062f": 1563, "{\\": 1564, "AL": 1565, "\u2581sk": 1566, "Name": 1567, "gr": 1568, "Id": 1569, "\u2581again": 1570, "ten": 1571, "\u2581Ar": 1572, "\u2581inform": 1573, "alk": 1574, "abel": 1575, "\u0432\u043e": 1576, "\u2581char": 1577, "\u2581bel": 1578, "OR": 1579, "this": 1580, "\u2581even": 1581, "item": 1582, "iness": 1583, "Cont": 1584, "chn": 1585, "\u2581find": 1586, "log": 1587, "son": 1588, "\u2581person": 1589, "\u2581here": 1590, "land": 1591, "\u00e3o": 1592, "\u2581So": 1593, "\u2581test": 1594, "\u2581way": 1595, "\u2581ke": 1596, "\u2581fil": 1597, "ional": 1598, "\u2581You": 1599, "\u043b\u043e": 1600, "\u2581help": 1601, "\u2581did": 1602, "\u2581made": 1603, "],": 1604, "\u2581cent": 1605, "')": 1606, "\u2581different": 1607, "\u2581\u00e0": 1608, "\u2581bo": 1609, "\u2581art": 1610, "--------": 1611, "idth": 1612, "List": 1613, "ica": 1614, "\u2581br": 1615, "gram": 1616, "\u043a\u0438": 1617, "LE": 1618, "].": 1619, "\u0442\u0438": 1620, "\u0932\u0947": 1621, "ample": 1622, "\u2581much": 1623, "\u2581case": 1624, "ati": 1625, "\u2581final": 1626, "ever": 1627, "ince": 1628, "ane": 1629, "ina": 1630, "=\\": 1631, "uss": 1632, "ene": 1633, "\u0924\u0947": 1634, "\u2581bus": 1635, "ij": 1636, "\u2581If": 1637, "\u2581same": 1638, "ants": 1639, "\u2581les": 1640, "eb": 1641, "\u2581para": 1642, "cur": 1643, "ethod": 1644, "\u2581met": 1645, "\u2581being": 1646, "\u2581som": 1647, "irc": 1648, "alse": 1649, "dd": 1650, "\u2581while": 1651, "gy": 1652, "cal": 1653, "utton": 1654, "part": 1655, "\u2581\u0633": 1656, "\u2581process": 1657, "\u0434\u0430": 1658, "Ch": 1659, "\u2581require": 1660, "\u2581giv": 1661, "ized": 1662, "\u2581else": 1663, "\u2581tra": 1664, "ource": 1665, "\u0627\u0631": 1666, "att": 1667, "\u2581develop": 1668, "\u2581\u09af": 1669, "\u2581cap": 1670, "\u0ba9\u0bcd": 1671, "\u09a4\u09c7": 1672, "arn": 1673, "fl": 1674, "ouse": 1675, "\u2581read": 1676, "\u2581does": 1677, "\u0bb2\u0bcd": 1678, "\u2581down": 1679, "\u2581before": 1680, "\u2581\u099c": 1681, "rop": 1682, "Ex": 1683, "\u2581X": 1684, "\u2581fr": 1685, "\u2581mark": 1686, "ather": 1687, "span": 1688, "\u2581main": 1689, "htt": 1690, "\u2581incre": 1691, "CT": 1692, "ital": 1693, "\u2581list": 1694, "\u2581background": 1695, "\u2581\u0907\u0938": 1696, "\u2581rep": 1697, "\u2581product": 1698, "\u2581using": 1699, "\u2581Con": 1700, "\u2581For": 1701, "\u2581design": 1702, "\u093f\u090f": 1703, "\u2581\\\\": 1704, "\u2581Sh": 1705, "ait": 1706, "\u2581fact": 1707, "for": 1708, "bo": 1709, "\u0995\u09c7": 1710, "\u09cd\u09ac": 1711, "raw": 1712, "ets": 1713, "str": 1714, "\u0442\u044c": 1715, "ger": 1716, "\u2581!": 1717, "ined": 1718, "\u2581day": 1719, "oci": 1720, "\";": 1721, "\u2581type": 1722, "alth": 1723, "\u2581those": 1724, "ke": 1725, "\u2581fam": 1726, "\u2581\u0644": 1727, "\u2581ins": 1728, "mathb": 1729, "arm": 1730, "ars": 1731, "\u2581)": 1732, "\u2581Tr": 1733, "pre": 1734, "ID": 1735, "ason": 1736, "\u2581vis": 1737, "_{\\": 1738, "\u0435\u0440": 1739, "ES": 1740, "era": 1741, "\u2581respon": 1742, "\u2581opt": 1743, "\u2581\u0baa": 1744, "sw": 1745, "\u09bf\u09a8": 1746, "\u2581du": 1747, "\u0435\u0442": 1748, "over": 1749, "\u2581cour": 1750, "\u2581think": 1751, "\u0935\u093e": 1752, "\u0939\u0940": 1753, "\u2581\u0443": 1754, "ually": 1755, "\u2581mat": 1756, "\u2581line": 1757, "\u2581men": 1758, "\u2581real": 1759, "\u2581partic": 1760, "ames": 1761, "ural": 1762, "\u2581effect": 1763, "\u2581aw": 1764, "\u2581found": 1765, "eta": 1766, "ament": 1767, "IT": 1768, "\u2581take": 1769, "ght": 1770, "\u2581going": 1771, "\u2581\u0906\u092a": 1772, "\u2581As": 1773, "\u2581last": 1774, "yp": 1775, "\u2581da": 1776, "ole": 1777, "\u2581die": 1778, "Image": 1779, "ases": 1780, ".\"": 1781, "bl": 1782, "\u2581De": 1783, "\u2581na": 1784, "\u093f\u0924": 1785, "\u2581pass": 1786, "\u2581Ex": 1787, "ness": 1788, "na": 1789, "\u0939\u093e": 1790, "\u2581best": 1791, "ared": 1792, "fo": 1793, "fe": 1794, "indow": 1795, "\u2581\u092b": 1796, "ava": 1797, "><": 1798, "\u2581New": 1799, "\u2581both": 1800, "ivers": 1801, "\u2581bre": 1802, "\u2581oper": 1803, "\u2581System": 1804, "ically": 1805, "\u2581three": 1806, "}}": 1807, "hes": 1808, "itle": 1809, "oh": 1810, "ref": 1811, "ience": 1812, "\u2581water": 1813, "\u2581poss": 1814, "\u2581fin": 1815, "\u2581text": 1816, "\u2581\u0646": 1817, "hor": 1818, "\u2581\u0641": 1819, "ength": 1820, "\u2581\u0639": 1821, "\u2581great": 1822, "\u2581\u091c\u093e": 1823, "\u2581contin": 1824, "rivate": 1825, "ters": 1826, ".\u201d": 1827, "ott": 1828, "Cl": 1829, "ration": 1830, "ral": 1831, "\u2581proble": 1832, "roll": 1833, "\u2581Le": 1834, "\u2581quest": 1835, "ior": 1836, "hip": 1837, "ross": 1838, "\u2581por": 1839, "egin": 1840, "ote": 1841, "ustom": 1842, "ien": 1843, "uf": 1844, "\u2581run": 1845, "\u2581id": 1846, "\u2581true": 1847, "cont": 1848, "ctor": 1849, "\u2581\u09aa\u09cd\u09b0": 1850, "\u2581Ind": 1851, "\u2581own": 1852, "ams": 1853, "ization": 1854, "\u2581second": 1855, "chool": 1856, "urs": 1857, "\u2581\u0938\u094d": 1858, "String": 1859, "\u2581\u0b95": 1860, "\u2581present": 1861, "section": 1862, "ron": 1863, "\u2581cle": 1864, "ology": 1865, "\u2581\u0938\u093e": 1866, "ense": 1867, "\u2581post": 1868, "Se": 1869, "essage": 1870, "pec": 1871, "ved": 1872, "\u2581current": 1873, "gg": 1874, "\u00e9s": 1875, "cript": 1876, "ader": 1877, "\u093f\u092f": 1878, "\u2581say": 1879, "\u0915\u0947": 1880, "\u2581prof": 1881, "We": 1882, "\u2581state": 1883, "\u2581rest": 1884, "px": 1885, "bs": 1886, "\u2581print": 1887, "\u2581dem": 1888, "ision": 1889, "\u2581>": 1890, "ify": 1891, "****": 1892, "ault": 1893, "\u2581support": 1894, "ency": 1895, "date": 1896, "cul": 1897, "ler": 1898, "error": 1899, "\u2581order": 1900, "mod": 1901, "\u2581world": 1902, "\u2581top": 1903, "no": 1904, "\u0b95\u0bcd\u0b95": 1905, "begin": 1906, "\u09bf\u0995": 1907, "\u2581non": 1908, "go": 1909, "\u2581cond": 1910, "\u2581var": 1911, "ocument": 1912, "\u2581during": 1913, "wh": 1914, "ential": 1915, "rc": 1916, "\u2581ver": 1917, "lex": 1918, "\u2581child": 1919, "ny": 1920, "\u2581must": 1921, "['": 1922, "ule": 1923, "\u2581sl": 1924, "ana": 1925, "da": 1926, "\u2581view": 1927, "div": 1928, "ism": 1929, "use": 1930, "^{\\": 1931, "\u2581open": 1932, "less": 1933, "ze": 1934, "\"]": 1935, "AM": 1936, "\u2581\u043a\u043e": 1937, "\u2581information": 1938, "ux": 1939, "ium": 1940, "\u2581term": 1941, "back": 1942, "\u2581\u0430": 1943, "\u2581small": 1944, "\u0bcd\u0b9f": 1945, "\u09b2\u09be": 1946, "ccess": 1947, "\u2581program": 1948, "ides": 1949, "akes": 1950, "new": 1951, "ivity": 1952, "\u2581Ph": 1953, "ists": 1954, "\u2581\u0928\u0947": 1955, "je": 1956, "\u099b\u09c7": 1957, "\u2581Cl": 1958, "\u0938\u0947": 1959, "\u2581business": 1960, "\u2581commun": 1961, "bers": 1962, "ember": 1963, "ploy": 1964, "ving": 1965, "\u2581consider": 1966, "var": 1967, "bre": 1968, "lection": 1969, "\u2581vol": 1970, "duct": 1971, "\u2581life": 1972, "\u2581Pl": 1973, "ush": 1974, "\u2581stand": 1975, "\u2581cr": 1976, "\u2581place": 1977, "\u2581\u09b6": 1978, "face": 1979, "Col": 1980, "\u0902\u0917": 1981, "\u2581direct": 1982, "\u2581um": 1983, "\u2581level": 1984, "\u2581una": 1985, "\u09b0\u09be": 1986, "const": 1987, "Res": 1988, "SE": 1989, "\u2581\u0bae": 1990, "\u2581techn": 1991, "med": 1992, "ivid": 1993, "\u2581\u043d\u0435": 1994, "print": 1995, "\u2581method": 1996, "arge": 1997, "\u2581il": 1998, "class": 1999, "']": 2000, "\u0447\u0435": 2001, "\u2581static": 2002, "by": 2003, "td": 2004, "\u2581proper": 2005, "....": 2006, "\u09b2\u09c7": 2007, "\u09b0\u09cd": 2008, "\u2581App": 2009, "\u0924\u0940": 2010, "IC": 2011, "\u099f\u09bf": 2012, "acter": 2013, "}(": 2014, "ences": 2015, "\u2581build": 2016, "\u2581gre": 2017, "arly": 2018, "ety": 2019, "itions": 2020, "To": 2021, "\u0434\u0438": 2022, "Ar": 2023, "\u2581But": 2024, "work": 2025, "ique": 2026, "ality": 2027, "\u2581model": 2028, "\u0441\u044f": 2029, "\u2581organ": 2030, "ives": 2031, "ara": 2032, "\u2581home": 2033, "\u2581den": 2034, "Tr": 2035, "\u2581still": 2036, "\u0bc1\u0bae\u0bcd": 2037, "\u2581\u0925": 2038, "View": 2039, "ittle": 2040, "\u2581*/": 2041, "\u2581\u0437\u0430": 2042, "\u2581pat": 2043, "\u2581\u0bb5": 2044, "\u2581elect": 2045, "App": 2046, "\u2581appro": 2047, "\u2581prote": 2048, "\u2581expl": 2049, "\u2581row": 2050, "\u2581dep": 2051, "\u0627\u062a": 2052, "aterial": 2053, "\u2581\u090f\u0915": 2054, "ission": 2055, "\u2581try": 2056, "\u043c\u0430": 2057, "\u0bcd\u0baa": 2058, "ION": 2059, "return": 2060, "ves": 2061, "\u043c\u0438": 2062, "def": 2063, "action": 2064, "\u2581care": 2065, "\u2581power": 2066, "Text": 2067, "ends": 2068, "\u2581week": 2069, "\u09ac\u09c7": 2070, "lease": 2071, "\u2581report": 2072, "RO": 2073, "max": 2074, "\u2581anal": 2075, "\u2581pur": 2076, "\u2581tri": 2077, "inc": 2078, "\u0ba4\u0bcd\u0ba4": 2079, "\u2581lead": 2080, "\u043b\u044f": 2081, "\u2581stre": 2082, "\u2581si": 2083, "type": 2084, "\u2581There": 2085, "size": 2086, "\u2581er": 2087, "\u2581How": 2088, "requ": 2089, "\u2581\u0926\u0947": 2090, "ished": 2091, "js": 2092, "ified": 2093, "This": 2094, "\u2581sal": 2095, "\u2581cho": 2096, "\u0648\u0631": 2097, ",\"": 2098, "\u2581po": 2099, "Data": 2100, "\u2581around": 2101, "\u2581Fr": 2102, "aci\u00f3n": 2103, "$.": 2104, "ird": 2105, "');": 2106, "ways": 2107, "net": 2108, "ability": 2109, "\u2581\u043a": 2110, "\u2581Col": 2111, "\u2581gl": 2112, "eter": 2113, "\u2581imp": 2114, "\u09df\u09c7": 2115, "\u0432\u0438": 2116, "\u09bf\u09a4": 2117, "ha": 2118, "====": 2119, "\u2581\u0997": 2120, "\u2581perform": 2121, "ister": 2122, "\u2581ref": 2123, "++": 2124, "\u0440\u0443": 2125, "\u2581really": 2126, "\u2581conf": 2127, "iron": 2128, "\u2581file": 2129, ",\u201d": 2130, "comm": 2131, "\u2581important": 2132, "arent": 2133, "';": 2134, "\u2581field": 2135, "\u2581/>": 2136, "\u2581las": 2137, "atic": 2138, "ats": 2139, "\u0930\u0940": 2140, "\u2581\u2018": 2141, "\u2581interest": 2142, "ination": 2143, "\u2581%": 2144, "\u2581cell": 2145, "\u2581ca": 2146, "\u2581private": 2147, "\u2581next": 2148, "la": 2149, "\u0932\u0940": 2150, "resent": 2151, "por": 2152, "public": 2153, "\u2581On": 2154, "roid": 2155, "ato": 2156, "\u2581cost": 2157, "\u2581\u092d\u0940": 2158, "ideo": 2159, "pi": 2160, "\u2581eas": 2161, "umn": 2162, "orn": 2163, "file": 2164, "\u2581`": 2165, "arget": 2166, "ee": 2167, "itor": 2168, "ga": 2169, "UT": 2170, "\u2581grow": 2171, "ference": 2172, "\u2581white": 2173, "\u2581allow": 2174, "adi": 2175, "bol": 2176, "\u2581Sp": 2177, "\u2581sit": 2178, "\u2581dev": 2179, "\u2581without": 2180, "test": 2181, "LL": 2182, "\u2581\u091f": 2183, "rem": 2184, "\u2581je": 2185, "\u0434\u0435": 2186, "org": 2187, "\u2581adv": 2188, "\u2581\u0935\u093f": 2189, "\u093f\u092f\u093e": 2190, "ateg": 2191, "\u2581\u2014": 2192, "oot": 2193, "\u0915\u093e": 2194, "\u2581They": 2195, "\u2581free": 2196, "\u2581pot": 2197, "\u2581pop": 2198, "\u2581Be": 2199, "\u0627\u0645": 2200, "EX": 2201, "hi": 2202, "\u2581project": 2203, "sub": 2204, "As": 2205, "ards": 2206, "ailable": 2207, "\u0930\u093e": 2208, "He": 2209, "\u2581tot": 2210, "\u2581\u062c": 2211, "\u2581log": 2212, "\u2581\u09ad": 2213, "\u2581light": 2214, "ici": 2215, "\u2581\u0916": 2216, "not": 2217, "ertain": 2218, "\u2581},": 2219, "uro": 2220, "\u2581wom": 2221, "\u2581_": 2222, "\u2581\u0b85": 2223, "ais": 2224, "\u2581unt": 2225, "\u2581iss": 2226, "\u0441\u0442\u0430": 2227, "\u2581head": 2228, "\u2581come": 2229, "bar": 2230, "\u2581mult": 2231, "ively": 2232, "\u2581invest": 2233, "list": 2234, "den": 2235, "pha": 2236, "ords": 2237, "\u2581given": 2238, "\u2581happ": 2239, "ception": 2240, "oto": 2241, "-\\": 2242, "\u2581disc": 2243, "stand": 2244, "\u0bb3\u0bcd": 2245, "\u2581call": 2246, "\u2581put": 2247, "\u2581\u0924\u094b": 2248, "IS": 2249, "\u2581wr": 2250, "\u2581\u099a": 2251, "\u2581rece": 2252, "une": 2253, "\u2581Wh": 2254, "\u2581old": 2255, "\u2581control": 2256, "\u2581\u06c1": 2257, "\u2581color": 2258, "ocial": 2259, "\u2581book": 2260, "\u2581Res": 2261, "\u2581\u092c\u093e": 2262, "\u2581local": 2263, "\u2581another": 2264, "bal": 2265, "inter": 2266, "An": 2267, "\u2581little": 2268, "\u2581following": 2269, "nect": 2270, "\u2581vers": 2271, "\u2581\u0631": 2272, "leg": 2273, "yd": 2274, "za": 2275, "uff": 2276, "iment": 2277, "ours": 2278, "ains": 2279, "\u2581bas": 2280, "iver": 2281, "\u2581To": 2282, "mathbf": 2283, "\u2581lim": 2284, "\u0446\u0438": 2285, "umber": 2286, "\u09bf\u09b2": 2287, "\\]": 2288, "time": 2289, "\u2581game": 2290, "reg": 2291, "By": 2292, "CH": 2293, "ulation": 2294, "ately": 2295, "\u2581aff": 2296, "\u2581month": 2297, "\u2581ide": 2298, "\u2581group": 2299, "\u2581\u0b9a": 2300, "\u2581No": 2301, "ries": 2302, "\u2581null": 2303, "ero": 2304, "search": 2305, "\u09be\u0995": 2306, "\u2581key": 2307, "ando": 2308, "lication": 2309, "\u0928\u094d": 2310, "\u2581too": 2311, "];": 2312, "nh": 2313, "\u2581ant": 2314, "Val": 2315, "\u2581mov": 2316, "\u2581fun": 2317, "\\[": 2318, "\u0d28\u0d4d": 2319, "do": 2320, "\u2581few": 2321, "\u2581\u0932\u093f\u090f": 2322, "rist": 2323, "\u2581sum": 2324, "\u2581void": 2325, "opt": 2326, "ama": 2327, "Type": 2328, "\u2581\u043f\u0440\u043e": 2329, "sum": 2330, "\u2581\u0921": 2331, "\u2581\u067e": 2332, "\u09be\u09b2": 2333, "ems": 2334, "load": 2335, "\u2581eng": 2336, "path": 2337, "\u2581since": 2338, "ka": 2339, "lete": 2340, "\u2581Ad": 2341, "\u2581against": 2342, "\u2581All": 2343, "\u2581less": 2344, "\u0bbf\u0baf": 2345, "\u2581hum": 2346, "\u2581\u09ac\u09bf": 2347, "serv": 2348, "util": 2349, "\u2581pay": 2350, "\u2581within": 2351, "\u2581change": 2352, "\u2581sw": 2353, "\u2581document": 2354, "icle": 2355, "\u09be\u09ae": 2356, "ks": 2357, "\u2581En": 2358, "ape": 2359, "\u2581?": 2360, "\u2581\u0ba4": 2361, "\u2581Amer": 2362, "\u2581Comm": 2363, "user": 2364, "pport": 2365, "\u2581occ": 2366, "\u2581fac": 2367, "Al": 2368, "\u2581son": 2369, "ued": 2370, "AS": 2371, "\u2581Co": 2372, "ya": 2373, "mathcal": 2374, "\u2581Is": 2375, "\u2581Bl": 2376, "\u06cc\u06ba": 2377, "\u2581left": 2378, "iqu": 2379, "\u092e\u093e": 2380, "\u0932\u094d": 2381, "\u2581\u0447": 2382, "string": 2383, "\u2581\u0440\u0430": 2384, "\u2581manag": 2385, "\u2581ener": 2386, "\u0947\u0936": 2387, "\u043c\u043e": 2388, "aper": 2389, "\u2581four": 2390, "ches": 2391, "ume": 2392, "\u2581super": 2393, "value": 2394, "ling": 2395, "mrow": 2396, "iod": 2397, "\u2581chang": 2398, "\u06cc\u0646": 2399, "order": 2400, "\u2581custom": 2401, "UR": 2402, "ought": 2403, "\u2581health": 2404, "nment": 2405, "ET": 2406, "itive": 2407, "\u2581Or": 2408, "\u0917\u093e": 2409, "ided": 2410, "\u2581port": 2411, "sole": 2412, "ED": 2413, "\u2581expect": 2414, "ired": 2415, "\u2581false": 2416, "\u2581mot": 2417, "\u2581sing": 2418, "\u2581Pr": 2419, "\u2581leg": 2420, "\u043f\u043e": 2421, "\u2581\u0939\u092e": 2422, "ino": 2423, "ording": 2424, "\u2581size": 2425, "\u2581check": 2426, "input": 2427, "\u2581\u0647": 2428, "\u00e1s": 2429, "\u2581user": 2430, "\u2581mus": 2431, "\u2581things": 2432, "\u2581area": 2433, "\u2581team": 2434, "ayer": 2435, "\u2581market": 2436, "thing": 2437, "men": 2438, "\u0bb0\u0bc1": 2439, "\u2581including": 2440, "\u2581hist": 2441, "\u2581mag": 2442, "\u0924\u094d\u0930": 2443, "().": 2444, "\u2581ben": 2445, "ump": 2446, "erc": 2447, "af": 2448, "\u0bb0\u0bcd": 2449, "ui": 2450, "url": 2451, "\u0633\u062a": 2452, "ething": 2453, "})": 2454, "\u2581large": 2455, "\u2581struct": 2456, "CO": 2457, "ift": 2458, "\u2581ann": 2459, "\u2581event": 2460, "\u2581ret": 2461, "\u2581always": 2462, "\u2581meas": 2463, "{~": 2464, "\u094d\u0935": 2465, "AD": 2466, "kt": 2467, "\u0921\u093c": 2468, "\u0928\u0940": 2469, "ised": 2470, "\u2581image": 2471, "uck": 2472, "\u2581might": 2473, "\u2581Te": 2474, "\u2581\u043a\u0430": 2475, "ived": 2476, "vious": 2477, "key": 2478, "\u2581path": 2479, "\u2581better": 2480, "\u2581Mar": 2481, "alpha": 2482, "\u2581string": 2483, "uild": 2484, "\u2581\u0989": 2485, "ico": 2486, "\u2581available": 2487, "\u2581gover": 2488, "ja": 2489, "\u2581turn": 2490, "label": 2491, "ently": 2492, "viron": 2493, "\u2581inc": 2494, "\u2581object": 2495, "\u2581ele": 2496, "prime": 2497, "ror": 2498, "ances": 2499, "$,": 2500, "function": 2501, "\u2581init": 2502, "aster": 2503, "ope": 2504, "\u2581redu": 2505, "\u2581got": 2506, "='": 2507, "conom": 2508, "\u2581service": 2509, "\u09a8\u09cd": 2510, "\u0648\u0646": 2511, "ocus": 2512, "array": 2513, "\u2581keep": 2514, "vert": 2515, "\u00eda": 2516, "\u2581addition": 2517, "\u2581vi": 2518, "\u2581train": 2519, "ili": 2520, "\u2581fore": 2521, "ymbol": 2522, "\u2581family": 2523, "ially": 2524, "\u2581\u09ac\u09be": 2525, "){": 2526, "\u2581beh": 2527, "\u2581school": 2528, "ails": 2529, "($": 2530, "\u2581\u0634": 2531, "}$.": 2532, "ida": 2533, "\u2581ce": 2534, "\u2581ein": 2535, "\u2581results": 2536, "\u043d\u0438\u044f": 2537, "iles": 2538, "\u0baa\u0bcd\u0baa": 2539, "ification": 2540, "\u2581break": 2541, "For": 2542, "from": 2543, "\u2581company": 2544, "rict": 2545, "ering": 2546, "\u2581tre": 2547, "\u2581ident": 2548, "\u2581orig": 2549, "ros": 2550, "py": 2551, "\u2581String": 2552, "\u0ba4\u0bc1": 2553, "\u0924\u093f": 2554, "ention": 2555, "\u2581mar": 2556, "\u2581space": 2557, "\u2581total": 2558, "\u2581\u0b87": 2559, "pped": 2560, "\u2581material": 2561, "\u094b\u0917": 2562, "\u2581big": 2563, "uy": 2564, "iversity": 2565, "box": 2566, "outh": 2567, "gen": 2568, "button": 2569, "ession": 2570, "\u2581determ": 2571, "\u09a6\u09c7\u09b0": 2572, "\u0436\u0435": 2573, "https": 2574, "\u2581dr": 2575, "met": 2576, "ended": 2577, "\u2581~": 2578, "ably": 2579, "ante": 2580, "oss": 2581, "EXT": 2582, "\u2581give": 2583, "\u2581\u0905\u092a": 2584, "][": 2585, "OT": 2586, "\u2581full": 2587, "></": 2588, "\u0431\u043e": 2589, "\u2581US": 2590, "\u2581example": 2591, "sk": 2592, "\u2581arg": 2593, "ormal": 2594, "####": 2595, "\u2581fri": 2596, "\u2581feel": 2597, "iter": 2598, "\u2581Man": 2599, "ured": 2600, "\u2581land": 2601, "icon": 2602, "\u2581bro": 2603, "\u2581red": 2604, "lish": 2605, "\u2581lot": 2606, "\u2581\u098f\u0995": 2607, "\u2581problem": 2608, "oper": 2609, "\u2581\u0434\u043e": 2610, "\u2581ill": 2611, "\u2581mill": 2612, "\u2581something": 2613, "\u2581sever": 2614, "\u2581whe": 2615, "idad": 2616, "\u2581--": 2617, "mail": 2618, "\u2581create": 2619, "aces": 2620, "\u2581law": 2621, "ribut": 2622, "ury": 2623, "ley": 2624, "\u2581She": 2625, "\u2581\u09a8\u09bf": 2626, "\u0939\u0947": 2627, "elta": 2628, "``": 2629, "\u2581success": 2630, "\u2581max": 2631, "':": 2632, "\u2581table": 2633, "\u2581air": 2634, "crib": 2635, "ression": 2636, "\u2581pour": 2637, "={": 2638, "ables": 2639, "\u2581At": 2640, "oney": 2641, "iff": 2642, "ids": 2643, "\u2581range": 2644, "opy": 2645, "aim": 2646, "ouble": 2647, "\u043c\u0435": 2648, "ples": 2649, "\u0938\u0940": 2650, "\u2581hard": 2651, "\u0ba8\u0bcd\u0ba4": 2652, "\u2581possible": 2653, "\u2581\u0ba8": 2654, "\u2581prim": 2655, "Mod": 2656, "\u2581net": 2657, "pack": 2658, "\u0939\u0940\u0902": 2659, "\u2581tak": 2660, "po": 2661, "index": 2662, "AP": 2663, "\u2581\u0935\u093e": 2664, "ita": 2665, "}+": 2666, "ograph": 2667, "\u2581days": 2668, "ending": 2669, "\u0434\u043e": 2670, "\u2581CO": 2671, "\u2581Eng": 2672, "\u2581enc": 2673, "aint": 2674, "\u2581diff": 2675, "\u2581ge": 2676, "way": 2677, "\u2581side": 2678, "\u2581ask": 2679, "\u0433\u0430": 2680, "arrow": 2681, "ww": 2682, "pper": 2683, "enn": 2684, "\u093e\u092e": 2685, "\u2581press": 2686, "\u0432\u0435": 2687, "urther": 2688, "\u2581mean": 2689, "width": 2690, "\u2581\u0938\u0902": 2691, "cd": 2692, "acy": 2693, "itch": 2694, "\u09be\u09b9": 2695, "\u2581\u044d": 2696, "));": 2697, "igure": 2698, "ones": 2699, "cle": 2700, "./": 2701, "\u2581bi": 2702, "nal": 2703, "Ind": 2704, "includ": 2705, "\u09cd\u09b7": 2706, "\u2581experience": 2707, "\u2581low": 2708, "Ob": 2709, "ura": 2710, "\u2581});": 2711, "\u2581kind": 2712, "ido": 2713, "AC": 2714, "orth": 2715, "\u0d15\u0d4d": 2716, "```": 2717, "\u2581Su": 2718, "\u2581indust": 2719, "mp": 2720, "\u2581based": 2721, "atus": 2722, "ican": 2723, "\u09cd\u099f": 2724, "fect": 2725, "ources": 2726, "\u2581flow": 2727, "\u2581..": 2728, "\u2581offer": 2729, "En": 2730, "\u2581plan": 2731, "\u2581&&": 2732, "}=": 2733, "respon": 2734, "\u2581able": 2735, "\u2581employ": 2736, "atter": 2737, "\u2581circ": 2738, "\u09a4\u09bf": 2739, "Pl": 2740, "creen": 2741, "\u2581body": 2742, "ev": 2743, "\u2581input": 2744, "\u0bbf\u0bb2\u0bcd": 2745, "atures": 2746, "irt": 2747, "\u2581study": 2748, "\u2581impro": 2749, "equ": 2750, "ream": 2751, "\u2581never": 2752, "mu": 2753, "\u2581represent": 2754, "bt": 2755, "\u0b9f\u0bcd\u0b9f": 2756, "\u2581cu": 2757, "\u00e7\u00e3o": 2758, "\u043d\u0438\u0435": 2759, "\u2581called": 2760, "\u2581Gr": 2761, "arr": 2762, "dis": 2763, "\u2581black": 2764, "\u2581love": 2765, "plic": 2766, "\u2581prom": 2767, "\u2581hold": 2768, "www": 2769, "\u2581ris": 2770, "nder": 2771, "ayout": 2772, "ffic": 2773, "\u2581La": 2774, "\u2581inte": 2775, "rt": 2776, "\u2581social": 2777, "\u2581energy": 2778, "\u2581due": 2779, "\u2581food": 2780, "\u0915\u0930": 2781, "\u2581times": 2782, "IM": 2783, "icro": 2784, "lected": 2785, "aps": 2786, "\u2581above": 2787, "ready": 2788, "\u2581\u00ab": 2789, "\u2581\u0441\u043e": 2790, "On": 2791, "lt": 2792, "\u2581far": 2793, "ories": 2794, "\u2581Br": 2795, "\u2581hal": 2796, "\u2581Qu": 2797, "\u09cd\u09af\u09be": 2798, "\u2581typ": 2799, "kan": 2800, "\u2581mom": 2801, "\u2581access": 2802, "\u2581special": 2803, "\u2581pract": 2804, "Un": 2805, "aff": 2806, "AG": 2807, "HE": 2808, "\u093f\u0928": 2809, "\u2581won": 2810, "place": 2811, "])": 2812, "ponent": 2813, "\u2581ter": 2814, "\u2581\u091c\u094b": 2815, "\u2581exc": 2816, "\u00fcr": 2817, "ini": 2818, "----------------": 2819, "\u2581means": 2820, "\u094d\u091f": 2821, "\u2581short": 2822, "\u2581nat": 2823, "\u2581gen": 2824, "Wh": 2825, "\u2581yang": 2826, "\u2581move": 2827, "ervice": 2828, "\u2581beg": 2829, "vironment": 2830, "\u2581nh": 2831, "ohn": 2832, "\u2581respect": 2833, "head": 2834, "\u2581\u0930\u093e": 2835, "imal": 2836, "\u2581ste": 2837, "\u2581sat": 2838, "ih": 2839, "hold": 2840, "\u0d24\u0d4d": 2841, "amma": 2842, "\u2581!=": 2843, "\u2581working": 2844, "ieve": 2845, "\u2581period": 2846, "\u2581provide": 2847, "abor": 2848, "\u2581exist": 2849, "ING": 2850, "\u2581flo": 2851, "\u2581htt": 2852, "ither": 2853, "\u2581fa": 2854, "http": 2855, "\u2581rowspan": 2856, "src": 2857, "cer": 2858, "If": 2859, "quest": 2860, "count": 2861, "\u2581stock": 2862, "\u2581shall": 2863, "\u2581request": 2864, "off": 2865, "Time": 2866, "\u0938\u093e": 2867, "\u2581dan": 2868, "ysis": 2869, "\u2581general": 2870, "\u2581cou": 2871, "\u2581character": 2872, "\u2581hig": 2873, "\u2581meet": 2874, "epend": 2875, "\u2581El": 2876, "\u2581prob": 2877, "\u09be\u0987": 2878, "oll": 2879, "\u2581dans": 2880, "\u2581account": 2881, "param": 2882, "link": 2883, "\u2581individ": 2884, "ND": 2885, "\u2581amount": 2886, "User": 2887, "\u2581sem": 2888, "\u2581sure": 2889, "\u2581cover": 2890, "\u2581country": 2891, "\u2581\u0932\u0947": 2892, "\u0627\u062f": 2893, "\u0440\u044b": 2894, "\u2581;": 2895, "sem": 2896, "side": 2897, "\u0441\u0442\u0438": 2898, "\u0915\u094b": 2899, "\u2581What": 2900, "\u2581\u092f\u093e": 2901, "aring": 2902, "ula": 2903, "ware": 2904, "\u2581comb": 2905, "ste": 2906, ".)": 2907, "mit": 2908, "\u2581neg": 2909, "\u2581talk": 2910, ")\\": 2911, "Item": 2912, "\u2581development": 2913, "su": 2914, "\u2581plus": 2915, "\u2581ang": 2916, "ude": 2917, "\u2581step": 2918, "va": 2919, "ett": 2920, "rel": 2921, "cription": 2922, "mn": 2923, "\u2581\u0993": 2924, "angle": 2925, "ored": 2926, "\u2581\u0627\u0644\u0645": 2927, "ager": 2928, "hr": 2929, "igned": 2930, "\u2581particular": 2931, "\u0646\u0627": 2932, "\u0441\u0442\u043e": 2933, "\u2581question": 2934, "\u2581Che": 2935, "lobal": 2936, "\u0648\u0644": 2937, "\u2581maj": 2938, "\u2581position": 2939, "\u2581children": 2940, "ounter": 2941, "sl": 2942, "roller": 2943, "swer": 2944, "arl": 2945, "zy": 2946, "\u2581qui": 2947, "\u2581video": 2948, "init": 2949, "ender": 2950, "\u2581abs": 2951, "}$,": 2952, "\u2581certain": 2953, "ENT": 2954, "\u2581uh": 2955, "mat": 2956, "apt": 2957, "\u2581research": 2958, "\u2581fut": 2959, "ilar": 2960, "\u2581dat": 2961, "\u2581width": 2962, "\u2581having": 2963, "ands": 2964, "\u2581\u0421": 2965, "\u307e\u3059": 2966, "\u2581pri": 2967, "\u0441\u0438": 2968, "\u2581Cont": 2969, "\u2581action": 2970, "\u2581\u09b8\u09ae": 2971, "\u2581d\u00e9": 2972, "ambda": 2973, "pping": 2974, "\u0447\u0430": 2975, "\u0902\u0926": 2976, "\u2581[]": 2977, "\u2581room": 2978, "\u2581values": 2979, "\u2581treat": 2980, "\u2581That": 2981, "\u2581pas": 2982, "\u2581\u09aa\u09b0": 2983, "\u2581\u06a9\u06cc": 2984, "ores": 2985, "\u2581<<": 2986, "irl": 2987, "olution": 2988, "ldots": 2989, "\u2581\u043e\u0442": 2990, "\u2581Sc": 2991, "\u0445\u043e": 2992, "oad": 2993, "\u2581\u043f\u0440\u0438": 2994, "thers": 2995, "IG": 2996, "\u0902\u0921": 2997, "now": 2998, "iving": 2999, "\u2581\u0938\u092e": 3000, "color": 3001, "iled": 3002, "\u2581course": 3003, "\u2581content": 3004, "\u2581\u0928\u0939\u0940\u0902": 3005, "idd": 3006, "ison": 3007, "\u2581along": 3008, "icy": 3009, "ione": 3010, "\u2581obtain": 3011, "unt": 3012, "\u2581Am": 3013, "\u2581contain": 3014, "eral": 3015, "\u2581already": 3016, "word": 3017, "ache": 3018, "\u2581services": 3019, "rect": 3020, "rror": 3021, "loc": 3022, "\u2581\u09b0": 3023, "img": 3024, "ito": 3025, "\u2581When": 3026, "\u2581van": 3027, "\u2581done": 3028, "\u2581bar": 3029, "\u2581Cent": 3030, "\u2581trad": 3031, "ption": 3032, "\u0915\u093e\u0930": 3033, "\u2581display": 3034, "ibr": 3035, "Button": 3036, "\u2581une": 3037, "Size": 3038, "\u2581vo": 3039, "idence": 3040, "start": 3041, "\u2581\u041f": 3042, "\u2581making": 3043, "ados": 3044, "Form": 3045, "\u043d\u044f": 3046, "\u2581offic": 3047, "You": 3048, "\u0447\u0438": 3049, "\u2581understand": 3050, "ales": 3051, "\u093f\u0938": 3052, "\u2581\u0435": 3053, "uration": 3054, "\u2581fund": 3055, "\".": 3056, "\u2581\u09a6\u09c7": 3057, "\u2581clos": 3058, "ched": 3059, "\u2581Me": 3060, "style": 3061, "andom": 3062, "body": 3063, "\u2581\u0995\u09b0\u09c7": 3064, "yt": 3065, "AB": 3066, "clus": 3067, "\u2581past": 3068, "stit": 3069, "book": 3070, "\u2581toget": 3071, "\u2581response": 3072, "\u2581Im": 3073, "dict": 3074, "\u2581together": 3075, "\u2581complet": 3076, "oin": 3077, "pg": 3078, "\u2581Min": 3079, "irm": 3080, "\u2581\u03c4": 3081, "\u09be\u09df": 3082, "\u09c1\u09b0": 3083, "ilit": 3084, "\u2581dom": 3085, "\u0437\u0430": 3086, "\u0915\u094d\u0937": 3087, "imum": 3088, "\u2581necess": 3089, "\u2581signific": 3090, "using": 3091, "ibility": 3092, "ills": 3093, "icht": 3094, "\u2581temper": 3095, "lev": 3096, "\u2581until": 3097, "\u2581\u062d": 3098, "\u2581\u064a": 3099, "\u09bf\u09af\u09bc": 3100, "\u2581dri": 3101, "ension": 3102, "\u2581bit": 3103, "\u2581page": 3104, "\u2581como": 3105, "\u0941\u0930": 3106, "\u2581close": 3107, "\u2581Pol": 3108, "\u00ean": 3109, "\u09b8\u09cd\u09a4": 3110, "\u2581\u0939\u0940": 3111, "State": 3112, "Element": 3113, "\u2581indic": 3114, "\u043a\u0443": 3115, "\u2581\u043e\u0431": 3116, "\u2581style": 3117, "US": 3118, "length": 3119, "sel": 3120, "\u2581away": 3121, "\u2581\u0412": 3122, "ties": 3123, "\u2581today": 3124, "\u0441\u0435": 3125, "indows": 3126, "\u0924\u094d": 3127, "Par": 3128, "CC": 3129, "\u2581activ": 3130, "\u2581several": 3131, "\u0627\u0628": 3132, "And": 3133, "\u2581Cal": 3134, "Value": 3135, "\u2581rate": 3136, "\u2581dig": 3137, "Sh": 3138, "\u0627\u06cc": 3139, "iful": 3140, "\u2581individual": 3141, "\u2581\u09a5": 3142, "\u2581These": 3143, "oud": 3144, "uation": 3145, "ken": 3146, "board": 3147, "\u2581University": 3148, "\u2581required": 3149, "\u09cd\u09a5": 3150, "\u2581cas": 3151, "\u2581mo": 3152, "\u2581However": 3153, "uel": 3154, "\u2581house": 3155, "orld": 3156, "\u2581\u0e40": 3157, "EM": 3158, "lor": 3159, "\u2581\u06a9\u06d2": 3160, "\u2581single": 3161, "umer": 3162, "\u2581ti": 3163, "pat": 3164, "\u2581error": 3165, "\u2581\u0442": 3166, "\u2581\u092a\u093e": 3167, "\u2581econom": 3168, "sv": 3169, "\u2581\u0641\u064a": 3170, "\u2581Ab": 3171, "\u2581lik": 3172, "ano": 3173, "({": 3174, "rodu": 3175, "\u2581\u0433": 3176, "ye": 3177, "rite": 3178, "amos": 3179, "ief": 3180, "}^{\\": 3181, "\u2581looking": 3182, "ruction": 3183, "\u2581young": 3184, "html": 3185, "\u2581Mr": 3186, "\u2581often": 3187, "\u2581strong": 3188, "\u2581says": 3189, "\u00e9e": 3190, "\u2581cult": 3191, "ella": 3192, "\u2581creat": 3193, "ente": 3194, "\u2581job": 3195, "\u2581appear": 3196, "ney": 3197, "\u2581least": 3198, "\u2581Can": 3199, "\u2581sus": 3200, "ules": 3201, "File": 3202, "vis": 3203, "\u2581include": 3204, "\u2581link": 3205, "urch": 3206, "\u2581city": 3207, "\u2581ess": 3208, "\u2581later": 3209, "\u2581thing": 3210, "\u2581products": 3211, "chen": 3212, "\u2581focus": 3213, "\u093f\u0932": 3214, "\u043d\u0443": 3215, "\u2581larg": 3216, "\u2581why": 3217, "Add": 3218, "autiful": 3219, "arning": 3220, "\u2581Par": 3221, "\u0b99\u0bcd\u0b95": 3222, "light": 3223, "\u2581known": 3224, "\u2581base": 3225, "\u2581\u0986\u09ae": 3226, "\u2581With": 3227, "\u2581invol": 3228, "\u2581au": 3229, "ding": 3230, "script": 3231, "\u2581mit": 3232, "\u2581seg": 3233, "\u2581\u0433\u043e": 3234, "\u2581hab": 3235, "ani": 3236, "\u2581\u043c\u043e": 3237, "\u00e1n": 3238, "\u2581describ": 3239, "omet": 3240, "main": 3241, "\u2581\u092f\u0939": 3242, "All": 3243, "\u2581l\u00e0": 3244, "\u2581State": 3245, "\u2581human": 3246, "\u2581IN": 3247, "angu": 3248, "\u2581discuss": 3249, "title": 3250, "\u2581government": 3251, "\u2581os": 3252, "OD": 3253, "ising": 3254, "state": 3255, "\u2581\u0645\u0646": 3256, "\u2581Sch": 3257, "Le": 3258, "wards": 3259, "\u2581author": 3260, "\u2581Ass": 3261, "\u2581major": 3262, "\u2581benef": 3263, "\u09be\u09a4": 3264, "\u2581sent": 3265, "\u2581\u0442\u0430": 3266, "fil": 3267, "\u2581\u062e": 3268, "ln": 3269, "\u2581\u092e\u093e": 3270, "ua": 3271, "\u2581students": 3272, "\u2581money": 3273, "post": 3274, "map": 3275, "${": 3276, "\u2581\u0442\u043e": 3277, "query": 3278, "\u2581href": 3279, "\u0bc8\u0baf": 3280, "cy": 3281, "\u2581reason": 3282, "((": 3283, "ca": 3284, "Qu": 3285, "\u2581mer": 3286, "ators": 3287, "\u2581\u0444": 3288, "\u2581\u098f\u09ac": 3289, "ips": 3290, "\u2581become": 3291, "$\\": 3292, "\u2581Med": 3293, "\u2581pack": 3294, "\u2581members": 3295, "\u2581comput": 3296, "\u2581\u092a\u0939": 3297, "\u2581points": 3298, "\u09be\u09b8": 3299, "\u2581conc": 3300, "raft": 3301, "elt": 3302, "\u2581original": 3303, "image": 3304, "\u2581thought": 3305, "\u2581pa": 3306, "my": 3307, "pen": 3308, "\u2581TEXT": 3309, "\u2581kh": 3310, "\u2581infl": 3311, "\u2581param": 3312, "\u2581calcul": 3313, "\u2581Des": 3314, "ios": 3315, "istic": 3316, "ille": 3317, "rap": 3318, "imate": 3319, "ena": 3320, "De": 3321, "\u2581cam": 3322, "\u2581+=": 3323, "\u2581upon": 3324, "\u2581quality": 3325, "plement": 3326, "\u2581phys": 3327, "\u2581target": 3328, "\u2581observ": 3329, "osp": 3330, "\u2581Car": 3331, "utes": 3332, "\u2581pub": 3333, "IL": 3334, "\u3057\u3066": 3335, "\u2581section": 3336, "\u2581compon": 3337, "\u2581pod": 3338, "\u2581educ": 3339, "\u09be\u09ac": 3340, "\u0938\u094d\u091f": 3341, "\u2581further": 3342, "cret": 3343, "\u2581gi": 3344, "\u2581win": 3345, "////": 3346, "lished": 3347, "\u2581dire": 3348, "\u2581ou": 3349, "where": 3350, "\u2581Christ": 3351, "room": 3352, "\u2581May": 3353, "OS": 3354, "\u2581block": 3355, "\u2581${": 3356, "beta": 3357, "\u2581mor": 3358, "IR": 3359, "Path": 3360, "\u2581similar": 3361, "\u0627\u0626": 3362, "\u2581whether": 3363, "\u2581common": 3364, "lar": 3365, "Man": 3366, "********": 3367, "rown": 3368, "vo": 3369, "ports": 3370, "\u2581connect": 3371, "Object": 3372, "rix": 3373, "most": 3374, "\u2581ng": 3375, "\u2581compet": 3376, "iones": 3377, "}{\\": 3378, "\u09c1\u09b2": 3379, "ync": 3380, "\u2581relations": 3381, "\u2581ri": 3382, "\u00e9n": 3383, "\u2581phot": 3384, "\u2581price": 3385, "des": 3386, "EL": 3387, "\u2581illust": 3388, "\u2581\u0915\u093f\u092f\u093e": 3389, "ony": 3390, "\u2581\u041a": 3391, "\u2581face": 3392, "\u2581code": 3393, "\u09bf\u09b0": 3394, "\u2581hom": 3395, "ival": 3396, "true": 3397, "\u2581Per": 3398, "\u2581community": 3399, "\u064a\u0646": 3400, "phi": 3401, "\u2581future": 3402, "\u2581colspan": 3403, "alt": 3404, "df": 3405, "Box": 3406, "Get": 3407, "\u2581element": 3408, "\u2581season": 3409, "avor": 3410, "ube": 3411, "tem": 3412, "\u2581mass": 3413, "\u0441\u043e": 3414, "\u2581John": 3415, "igma": 3416, "\u2581\u0642": 3417, "\u2581across": 3418, "mon": 3419, "\u2581\u0928\u093f": 3420, "\u2581address": 3421, "ilities": 3422, "\u2581record": 3423, "\u2581associ": 3424, "\u2581hot": 3425, "\u2581below": 3426, "\u2581dest": 3427, "gress": 3428, "\u2581\u0432\u043e": 3429, "ster": 3430, "\u2581Ag": 3431, "\u2581site": 3432, "\u2581date": 3433, "Exception": 3434, "\u2581potential": 3435, "ii": 3436, "\u2581bring": 3437, "\u2581das": 3438, "\u2581conditions": 3439, "\u2581\u098f\u09ac\u0982": 3440, "\u2581respons": 3441, "\u2581tell": 3442, "ogle": 3443, "asing": 3444, "verage": 3445, "\u2581night": 3446, "\u2581org": 3447, "ils": 3448, "\u2581learn": 3449, "}=\\": 3450, "\u0448\u0435": 3451, "uz": 3452, "\u2581environment": 3453, "ilt": 3454, "urope": 3455, "used": 3456, "\u2581\u0939\u0941": 3457, "itted": 3458, "\u0915\u0940": 3459, ")(": 3460, "\u0644\u0627": 3461, "\u2581espec": 3462, "\u2581cut": 3463, "umb": 3464, "\u2581solution": 3465, "());": 3466, "fort": 3467, "\u2581Cor": 3468, "len": 3469, "\u043b\u0443": 3470, "\u2581crit": 3471, "\u2581seen": 3472, "position": 3473, "utions": 3474, "\u2581polit": 3475, "sq": 3476, "\u2581either": 3477, "\u0434\u0443": 3478, "\u2581moment": 3479, "though": 3480, "\u2581font": 3481, "\u2581bir": 3482, ")=": 3483, "Color": 3484, "lambda": 3485, "\u2581\u0b8e": 3486, "\u2581enough": 3487, "iam": 3488, "\u2581online": 3489, "\u2581doing": 3490, "\u2581exam": 3491, "\u2581\u0622": 3492, "\u2581five": 3493, "Error": 3494, "\u2581concept": 3495, "\u2581others": 3496, "With": 3497, "\u2581$(": 3498, "\u2581array": 3499, "Event": 3500, "\u2581\u0926\u094b": 3501, "\u2581Ste": 3502, "Key": 3503, "\u2581ma": 3504, "\u2581shown": 3505, "\u2581\u0623": 3506, "())": 3507, "Bl": 3508, "ora": 3509, "ades": 3510, "quad": 3511, "ober": 3512, "\u0441\u043a\u043e": 3513, "ki": 3514, "pportun": 3515, "PI": 3516, "\u2581visit": 3517, "pose": 3518, "\u0441\u044c": 3519, "\u2581Act": 3520, "come": 3521, "circ": 3522, "\u2581taken": 3523, "Or": 3524, "ribute": 3525, "\u2581ist": 3526, "\u2581previous": 3527, "\u2581writ": 3528, "\u0917\u0947": 3529, "\u2581specific": 3530, "earch": 3531, "Index": 3532, "\u09a8\u09c7": 3533, "resh": 3534, "ological": 3535, "ols": 3536, "cho": 3537, "\u2581soft": 3538, "\u2581claim": 3539, "\u2581review": 3540, "\u2581near": 3541, "\u2581div": 3542, "\u094d\u091a": 3543, "ottom": 3544, "\u2581camp": 3545, "\u2581index": 3546, "\u3057\u305f": 3547, "\u2581needs": 3548, "\u2581wall": 3549, "\u2581vector": 3550, "\u2581My": 3551, "\u2581\u0643": 3552, "\u2581increase": 3553, "\u2581console": 3554, "ali": 3555, "ULL": 3556, "____": 3557, "\u2581height": 3558, "\u2581\u0938\u0915": 3559, "ogn": 3560, "\u2581estab": 3561, "\u2581sche": 3562, "\u2581Ge": 3563, "\u2581von": 3564, "iple": 3565, "\u2581sam": 3566, "\u2581version": 3567, "\u2581\u099b": 3568, "lick": 3569, "\u2581inf": 3570, "\u2581among": 3571, "\u2581various": 3572, "\u2581pers": 3573, "\u2581Do": 3574, "ounds": 3575, "\u2581sugg": 3576, "\u2581personal": 3577, "oute": 3578, "\u2581Ne": 3579, "java": 3580, "\u2581\u0915\u0930\u0928\u0947": 3581, "\u2581clear": 3582, "\u0646\u062f": 3583, "icult": 3584, "\u2581integr": 3585, "Ph": 3586, "\u2581Dr": 3587, "\u2581came": 3588, "\u093e\u0907": 3589, "\u2581makes": 3590, "\u2581percent": 3591, "nection": 3592, "field": 3593, "\u2581Bo": 3594, "\u2581ten": 3595, "\u043c\u0443": 3596, "unch": 3597, "ni": 3598, "\u2581\u0987": 3599, "\u2581suggest": 3600, "olds": 3601, "\u2581Ed": 3602, "mathbb": 3603, "ba": 3604, "\u2581series": 3605, "\u2581simple": 3606, "\u2581women": 3607, "\u2581deg": 3608, "\u00e1c": 3609, "ried": 3610, "\u2581\u09a8\u09be": 3611, "ette": 3612, "\u2581sens": 3613, "\u0902\u091a": 3614, "\u2581tw": 3615, "\u0131n": 3616, "package": 3617, "\u2581message": 3618, "\u00e9t": 3619, "ML": 3620, "\u2581ir": 3621, "\u2581once": 3622, "uly": 3623, "ges": 3624, "\u2581million": 3625, "gl": 3626, "\u2581paper": 3627, "\u2581mi": 3628, "\u2581significant": 3629, "apter": 3630, "font": 3631, "empt": 3632, "aur": 3633, "\u09a8\u09cd\u09af": 3634, "\u2581though": 3635, "\u2581cases": 3636, "Context": 3637, "vec": 3638, "\u2581OF": 3639, "\u2581United": 3640, "ceed": 3641, "ixed": 3642, "\u2581actually": 3643, "amente": 3644, "\u2581front": 3645, "astic": 3646, "\u2581Gu": 3647, "\u2581sil": 3648, "\u2581early": 3649, "\u2581\u0925\u093e": 3650, "iding": 3651, "\u3067\u3059": 3652, "\u2581war": 3653, "\u2581begin": 3654, "chan": 3655, "\u2581One": 3656, "\u2581Reg": 3657, "\u2581word": 3658, "medi": 3659, "\u2581subject": 3660, "\u2581pan": 3661, "\u2581contact": 3662, "create": 3663, "\u2581II": 3664, "minist": 3665, "\u2581mind": 3666, "ops": 3667, "\u2581American": 3668, "ribution": 3669, "\u2581property": 3670, "\u2581analysis": 3671, "joy": 3672, "\u2581box": 3673, "mas": 3674, "========": 3675, "mark": 3676, "api": 3677, "\u2581default": 3678, "\u2581\"\"": 3679, "\u2581\u0918": 3680, "\u043f\u0430": 3681, "Date": 3682, "\u2581err": 3683, "hib": 3684, "\u2581however": 3685, "\u093e\u0930\u0940": 3686, "anks": 3687, "urb": 3688, "What": 3689, "\u2581ber": 3690, "\u2581\u0440\u0435": 3691, "OG": 3692, "\u2581.,": 3693, "Test": 3694, "Pre": 3695, "cm": 3696, "\u2581whole": 3697, "\u2581\u092e\u0941": 3698, "atform": 3699, "ham": 3700, "ged": 3701, "\u2581ap": 3702, "ball": 3703, "year": 3704, "ites": 3705, "\u2581Intern": 3706, "\u2581network": 3707, "ises": 3708, "result": 3709, "\u2581heart": 3710, "\u2581load": 3711, "iddle": 3712, "Aut": 3713, "\u2581{\"": 3714, "\u2581higher": 3715, "\u2581\u09af\u09c7": 3716, "\u2581buy": 3717, "\u2581lower": 3718, "\u2581production": 3719, "\u2581opportun": 3720, "\u2581took": 3721, "\u2581\u0639\u0644": 3722, "json": 3723, "\u2581parent": 3724, "\u2581Dis": 3725, "\u2581);": 3726, "\u2581walk": 3727, "plit": 3728, "\u2581...": 3729, "\u2581blue": 3730, "\u2581changes": 3731, "\u2581plant": 3732, "\u2581card": 3733, "inary": 3734, "\u2581easy": 3735, "\u2581performance": 3736, "\u2581///": 3737, "\u2581source": 3738, "\u2581application": 3739, "aves": 3740, "ires": 3741, "\u2581added": 3742, "UN": 3743, "num": 3744, "otal": 3745, "\u2581half": 3746, "ered": 3747, "dom": 3748, "roups": 3749, "oph": 3750, "uj": 3751, "\u2581q": 3752, "\u2581graph": 3753, "ias": 3754, "\u2581terms": 3755, "\u2581natural": 3756, "istance": 3757, "\u0449\u0435": 3758, "\u2581pattern": 3759, "\u2581\u0432\u044b": 3760, "\u2581surface": 3761, "config": 3762, "\u2581By": 3763, "\u2581Go": 3764, "tes": 3765, "\u092d\u0940": 3766, "IV": 3767, "\u2581sun": 3768, "OL": 3769, "append": 3770, "No": 3771, "\u2581deal": 3772, "\u2581York": 3773, "\u2581arm": 3774, "lin": 3775, "aced": 3776, "\u0433\u0438": 3777, "Pr": 3778, "zen": 3779, "\u09cd\u09aa": 3780, "\u09c7\u09b6": 3781, "\u2581didn": 3782, "\u2581util": 3783, "\u2581quant": 3784, "\u2581ever": 3785, "\u2581teach": 3786, "\u0647\u0627": 3787, "\u2581building": 3788, "\u2581pie": 3789, "\u2581Not": 3790, "\u0930\u0947": 3791, "\u2581Let": 3792, "\u2581\u092e\u0948": 3793, "\u2581months": 3794, "\u2581mach": 3795, "};": 3796, "\u2581systems": 3797, "\u2581fall": 3798, "ko": 3799, "(),": 3800, "ging": 3801, "\u093f\u0935": 3802, "\u2581God": 3803, "\u2581\u0915\u093e\u0930": 3804, "[]": 3805, "ese": 3806, "}-": 3807, "\u093e\u0932": 3808, "\u2581ach": 3809, "There": 3810, "ledge": 3811, "\u2581\u0438\u0437": 3812, "\u2581\u0938\u093e\u0925": 3813, "ala": 3814, "\u2581separ": 3815, "\u2581ens": 3816, "\u0448\u0438": 3817, "\u2581zu": 3818, "\u2581yet": 3819, "\u2581\u0917\u092f\u093e": 3820, "\u2581express": 3821, "\u2581title": 3822, "\u2581quick": 3823, "lim": 3824, "\u2581weight": 3825, "\u2581green": 3826, "\u2581Dep": 3827, "ework": 3828, "eters": 3829, "\u0441\u043a\u0438": 3830, "\u2581shows": 3831, ".;": 3832, "posed": 3833, "At": 3834, "\u2581options": 3835, "ained": 3836, "\u0bbe\u0b95": 3837, "\u2581pict": 3838, "\u2581blo": 3839, "pm": 3840, "times": 3841, "pan": 3842, "down": 3843, "ners": 3844, "Inter": 3845, "fully": 3846, "\u2581provided": 3847, "uit": 3848, "trans": 3849, "\u043b\u044c\u043d\u043e": 3850, "stract": 3851, "ns": 3852, "\u2581role": 3853, "formation": 3854, "\u2581\u044f": 3855, "\u2581protect": 3856, "\u0bbf\u0ba9\u0bcd": 3857, "\u2581Val": 3858, "inner": 3859, "\u0995\u09cd\u09b7": 3860, "\u2581length": 3861, "iet": 3862, "\u2581wood": 3863, "db": 3864, "\u0436\u0438": 3865, "\u2581ground": 3866, "\u2581normal": 3867, "\u2581financ": 3868, "\u2581tax": 3869, "\u0999\u09cd": 3870, "images": 3871, "\u2581hor": 3872, "center": 3873, "\u2581cells": 3874, "\u2581woman": 3875, "\u2581\u09b8\u09c7": 3876, "\u2581growth": 3877, "\u043d\u044b\u0445": 3878, "\u2581Europe": 3879, "\u0938\u094d\u0924": 3880, "ellow": 3881, "\u2581dam": 3882, "Group": 3883, "\u2581v\u00e0": 3884, "\u2581hours": 3885, "wa": 3886, "\u064a\u0629": 3887, "maz": 3888, "sequ": 3889, "\u2581answer": 3890, "rawing": 3891, "\u2581live": 3892, "bsite": 3893, "\u2581according": 3894, "Act": 3895, "bit": 3896, "ima": 3897, "Int": 3898, "\u094d\u0938": 3899, "Sc": 3900, "\u2581Dec": 3901, "\u2581\u06af": 3902, "^{-": 3903, "\u2581structure": 3904, "\u2581board": 3905, "info": 3906, "nes": 3907, "+\\": 3908, "\u2581difficult": 3909, "How": 3910, "\u2581age": 3911, "Be": 3912, "\u0441\u0442\u044c": 3913, "\u2581cannot": 3914, "\u2581android": 3915, "ti": 3916, "include": 3917, "\u2581\u0996": 3918, "\u2581Aut": 3919, "\u2581ho": 3920, "\u2581->": 3921, "\u2581cy": 3922, "\u2581\u0915\u0941": 3923, "itional": 3924, "\u2581story": 3925, "\u2581alg": 3926, "\u2581search": 3927, "ivo": 3928, "verse": 3929, "\u2581mis": 3930, "\u2581started": 3931, "Request": 3932, "\u2581\u0442\u0435": 3933, "\u2581\u09b0\u09be": 3934, "itting": 3935, "\u0d28\u0d4d\u0d28": 3936, "\u0d15\u0d4d\u0d15": 3937, "\u2581output": 3938, "\u2581went": 3939, "mary": 3940, "rug": 3941, "\u2581introdu": 3942, "\u2581||": 3943, "\u2581cook": 3944, "ario": 3945, "\u2581Pre": 3946, "point": 3947, "enu": 3948, "Out": 3949, "\u2581\u09a4\u09be": 3950, "mm": 3951, "\u2581comes": 3952, "\u2581girl": 3953, "\u0437\u0438": 3954, "content": 3955, "\u2581industry": 3956, "\u2581config": 3957, "\u2581engine": 3958, "\"),": 3959, "\u2581intern": 3960, "ilon": 3961, "\u2581six": 3962, "orage": 3963, "\u2581\u043c\u0430": 3964, "\u2581isol": 3965, "\u2581recomm": 3966, "\u2581loss": 3967, "\u2581har": 3968, "\u2581autom": 3969, "code": 3970, "\u0441\u0430": 3971, "\u2581double": 3972, "cast": 3973, "Set": 3974, "/*": 3975, "ben": 3976, "\u2581particip": 3977, "\u2581getting": 3978, "\u2581bal": 3979, "\u2581clean": 3980, "igation": 3981, "\u0442\u0443": 3982, "hel": 3983, "Des": 3984, "udio": 3985, "rie": 3986, "\u0bb1\u0bcd": 3987, "\u2581center": 3988, "\u3063\u3066": 3989, "\u2581r\u00e9": 3990, "top": 3991, "\u093e\u0930\u093e": 3992, "acc": 3993, "atory": 3994, "\u2581coll": 3995, "\u2581complex": 3996, "\u2581management": 3997, "\u2581foot": 3998, "ening": 3999, "page": 4000, "\"><": 4001, "current": 4002, "uments": 4003, "anguage": 4004, "plate": 4005, "\u2581improve": 4006, "\u2581prop": 4007, "elle": 4008, "\u2581media": 4009, "\u00f6r": 4010, "\u2581perfect": 4011, "IP": 4012, "curity": 4013, "urg": 4014, "\u2581\u041c": 4015, "\u2581\u0932\u094b\u0917": 4016, "just": 4017, "\u2581applic": 4018, "rial": 4019, "}(\\": 4020, "\u2581\u0b89": 4021, "\u2581temperature": 4022, "\u0435\u0440\u0435": 4023, "\u2581share": 4024, "\u2581National": 4025, "\u09a1\u09bc": 4026, "ened": 4027, "\u2581Ser": 4028, "\u2581refer": 4029, "\u2581taking": 4030, "rav": 4031, "\u2581c\u00f3": 4032, "SS": 4033, "jpg": 4034, "\u2581frequ": 4035, "Ad": 4036, "iti": 4037, "\u2581doesn": 4038, "\u2581\u05d4": 4039, "\u2581Part": 4040, "see": 4041, "\u3059\u308b": 4042, "group": 4043, "\u2581etc": 4044, "\u2581dim": 4045, "\u2581chall": 4046, "\u2581exec": 4047, "ategory": 4048, "ining": 4049, "\u03bf\u03c5": 4050, "ounc": 4051, "ication": 4052, "\u2581Mod": 4053, "\u2581court": 4054, "\u2581\u0926\u0947\u0916": 4055, "atal": 4056, "UL": 4057, "\u2581sch": 4058, "\u2581enjoy": 4059, "with": 4060, "\u043c\u0435\u043d": 4061, "\u09a8\u09cd\u09a4": 4062, "rightarrow": 4063, "\u2581java": 4064, "\u2581features": 4065, "itten": 4066, "\u2581\u0627\u0646": 4067, "\u2581initial": 4068, "\u094d\u0930\u0940": 4069, "DE": 4070, "\u2581cross": 4071, "\u09a8\u09be": 4072, "ags": 4073, "\u0648\u062f": 4074, "\u2581Em": 4075, "eq": 4076, "\u2581standard": 4077, "\u2581problems": 4078, "elling": 4079, "HT": 4080, "\u2581\u09a4\u09be\u09b0": 4081, "\u2581\u09ab": 4082, "\u2581history": 4083, "\\\\": 4084, "\u2581City": 4085, "\u2581bed": 4086, "\u2581track": 4087, "Of": 4088, "isf": 4089, "\u09a6\u09cd": 4090, "\u2581\u062f\u0631": 4091, "Config": 4092, "\u2581Af": 4093, "unc": 4094, "ply": 4095, "\u0926\u093e": 4096, "\u2581\u0410": 4097, "Service": 4098, "oke": 4099, "\u2581impact": 4100, "argin": 4101, "\u2581continue": 4102, "\u2581film": 4103, "ements": 4104, "\u2581princ": 4105, "\u2581areas": 4106, "ydro": 4107, "\u2581web": 4108, "\u2581World": 4109, "PE": 4110, "idge": 4111, "\u2581squ": 4112, "\u2581measure": 4113, "find": 4114, "\u2581lat": 4115, "Result": 4116, "void": 4117, "\u2581pati": 4118, "[\"": 4119, "\u2581ut": 4120, "\u2581}^{": 4121, "\u2581training": 4122, "ucle": 4123, "rip": 4124, "annel": 4125, "\u2581continu": 4126, "\u2581necessary": 4127, "\u2581region": 4128, "hing": 4129, "aged": 4130, "leq": 4131, "operator": 4132, "\u2581complete": 4133, "\u2581m\u00e1s": 4134, "\u2581nature": 4135, "\u2581\u0909\u0938": 4136, "\u2581questions": 4137, "ufact": 4138, "cel": 4139, "\u2581Add": 4140, "\u2581),": 4141, "bon": 4142, "iting": 4143, "\u2581implement": 4144, "nav": 4145, "\u2581works": 4146, "\u0442\u044b": 4147, "\u2581beautiful": 4148, "oved": 4149, "\u2581Rep": 4150, "igen": 4151, "\u2581Comp": 4152, "Log": 4153, "\u2581entre": 4154, "\u2581player": 4155, "\u2581\u0964": 4156, "\u2581()": 4157, "aging": 4158, "\u2581grand": 4159, "Array": 4160, "........": 4161, "\u2581\u0645\u06cc\u06ba": 4162, "Page": 4163, "\u2581dos": 4164, "\u06cc\u06a9": 4165, "asi": 4166, "Controller": 4167, "\u2581third": 4168, "IST": 4169, "osition": 4170, "\u2581words": 4171, "cdot": 4172, "\u2581told": 4173, "\u0bb1\u0bcd\u0bb1": 4174, "uest": 4175, "vi": 4176, "change": 4177, "\u2581\u0434\u0430": 4178, "\u2581Jan": 4179, "\u2581almost": 4180, "\u2581technology": 4181, "odes": 4182, "\u2581\u0447\u0442\u043e": 4183, "\u2581States": 4184, "\u2581global": 4185, "\u2581issue": 4186, "\u2581map": 4187, "\u2581item": 4188, "lector": 4189, "ynam": 4190, "\u2581relationship": 4191, "agn": 4192, "\u092e\u0947\u0902": 4193, "\u2581condition": 4194, "ramework": 4195, "\u2581stay": 4196, "ouch": 4197, "\u2581dise": 4198, "New": 4199, "UM": 4200, "\u0936\u0928": 4201, "Loc": 4202, "\u2581correspon": 4203, "\u2581pressure": 4204, "\u043d\u044b\u0435": 4205, "OM": 4206, "\u091f\u0940": 4207, "\u2581affect": 4208, "\u2581task": 4209, "\u2581After": 4210, "xim": 4211, "exp": 4212, "obile": 4213, "\u2581\uc774": 4214, "\u2581Trans": 4215, "\u2581DE": 4216, "\u2581matter": 4217, "partial": 4218, "\u2581\u0911": 4219, "\u2581cred": 4220, "ky": 4221, "Def": 4222, "gamma": 4223, "\u2581Now": 4224, "Sp": 4225, "\u2581rad": 4226, "\u2581ep": 4227, "xy": 4228, "\u2581opp": 4229, "\u2581compan": 4230, "\u00f4ng": 4231, "\u043b\u044e": 4232, "oldsymbol": 4233, "\u2581\u0905\u0928": 4234, "boldsymbol": 4235, "\u0995\u09be\u09b0": 4236, "\u2581od": 4237, "\u2581auf": 4238, "\u2581imm": 4239, "hand": 4240, "\u2581match": 4241, "\u2581accept": 4242, "ret": 4243, "\u2581Bar": 4244, "\u093e\u0930\u0947": 4245, "\u2581\u06a9\u0631": 4246, "\u2581held": 4247, "\").": 4248, "\u2581speed": 4249, "bed": 4250, "\u2581entire": 4251, "\u2581music": 4252, "\u2581host": 4253, "\u0e35\u0e48": 4254, "Fr": 4255, "check": 4256, "\u2581South": 4257, "\u2581contract": 4258, "itte": 4259, "\u2581sort": 4260, "ached": 4261, "\u2581\u041d": 4262, "ride": 4263, "\u2581/**": 4264, "aving": 4265, "izing": 4266, "ona": 4267, "itter": 4268, "\u2581treatment": 4269, "mission": 4270, "lying": 4271, "reen": 4272, "\u2581Fl": 4273, "ilde": 4274, "\u2581expected": 4275, "\u2581ol": 4276, "\u2581anim": 4277, "cial": 4278, "ao": 4279, "\u2581sou": 4280, "zi": 4281, "ador": 4282, "tre": 4283, "\u2581road": 4284, "\u2581especially": 4285, "\u0915\u093f": 4286, "\u2581bad": 4287, "zer": 4288, "\u0bbf\u0bb1": 4289, "rows": 4290, "\u2581Will": 4291, "Component": 4292, "uh": 4293, "\u00e1t": 4294, "\u00e9r": 4295, "\u2581Pres": 4296, "\u2581grad": 4297, "\u2581Then": 4298, "\u2581ball": 4299, "\u2581Gener": 4300, "\u2581travel": 4301, "\u2581\u098f\u0987": 4302, "\u2581regard": 4303, "\u2581fire": 4304, "\u2581miss": 4305, "\u2581pen": 4306, "\u2581\u0e04": 4307, "\u2581Count": 4308, "\u2581button": 4309, "\u2581minutes": 4310, "\u0b9f\u0bc1": 4311, "kn": 4312, "\u2581approach": 4313, "\u2581gas": 4314, "oj": 4315, "anch": 4316, "\u2581idea": 4317, "\u0432\u044b": 4318, "\u2581rather": 4319, "\u2581profess": 4320, "\u2581column": 4321, "\u2581screen": 4322, "\u2581via": 4323, "So": 4324, "\u2581Mon": 4325, "\u2581everything": 4326, "ello": 4327, "lege": 4328, "!!": 4329, "Over": 4330, "\u2581pain": 4331, "nov": 4332, "\u2581Int": 4333, "\u2581ya": 4334, "Class": 4335, "iy": 4336, "\",\"": 4337, "\u2581correct": 4338, "True": 4339, "OC": 4340, "\u2581valid": 4341, "\u2581issues": 4342, "\u2581sin": 4343, "\u043f\u0438": 4344, "\u2581sym": 4345, "\u2581quite": 4346, "\u0995\u09cd\u09a4": 4347, "Not": 4348, "\u2581\u043f\u0440\u0435": 4349, "Layout": 4350, "\u2581pick": 4351, "\u2581\u0927": 4352, "\u2581qual": 4353, "\u2581needed": 4354, "\u2581death": 4355, "\u0631\u0627": 4356, "anced": 4357, "\u2581jour": 4358, "\u2581Um": 4359, "\u2581unit": 4360, "\u2581List": 4361, "endo": 4362, "ector": 4363, "\u2581NULL": 4364, "\u092c\u0930": 4365, "osph": 4366, "\u2581purch": 4367, "model": 4368, "\u2581nom": 4369, "\u2581og": 4370, "\u2581\u092a\u0942": 4371, "\u2581Aust": 4372, "pass": 4373, "\u2581member": 4374, "message": 4375, "ATION": 4376, "Count": 4377, "selves": 4378, "\u2581tu": 4379, "\u043d\u0456": 4380, "\u2581star": 4381, "\u00e9es": 4382, "NA": 4383, "\u2581jud": 4384, "\u2581ax": 4385, "\u2581\u0d2a": 4386, "\u2581feed": 4387, "\u09be\u09af\u09bc": 4388, "\u2581friend": 4389, "msub": 4390, "\u0d24\u0d3f": 4391, "\u2581Ob": 4392, "inst": 4393, "Field": 4394, "ola": 4395, "Action": 4396, "\u2581mas": 4397, "\u2581average": 4398, "\u2581patients": 4399, "\u2581cause": 4400, "\u093f\u0930": 4401, "\u2581groups": 4402, "\u2581context": 4403, "mes": 4404, "\u2581mal": 4405, "version": 4406, "uses": 4407, "\u2581office": 4408, "arth": 4409, "ensive": 4410, "\u2581sett": 4411, "het": 4412, "\u2581\u2191": 4413, "\u2581positive": 4414, "zo": 4415, "\u2581sec": 4416, "\u2581agre": 4417, "\u043d\u043e\u0433\u043e": 4418, "++)": 4419, "When": 4420, "\u2581\u0909\u0928": 4421, "\u2581]": 4422, "pa": 4423, "mt": 4424, "cos": 4425, "\u2581Mc": 4426, "osed": 4427, "RA": 4428, "\u2581photo": 4429, "\u2581client": 4430, "bor": 4431, "Ste": 4432, "sigma": 4433, "\u0437\u043e": 4434, "\u2581deb": 4435, "ige": 4436, "\u06cc\u0627": 4437, "operatorname": 4438, "\u2581ST": 4439, "\u093f\u092f\u094b\u0902": 4440, "\u043d\u044b\u0439": 4441, "\u0436\u0430": 4442, "yes": 4443, "apan": 4444, "omega": 4445, "\u2581oil": 4446, "rho": 4447, "\u2581forward": 4448, "ById": 4449, "\u043d\u043e\u0439": 4450, "aya": 4451, "Number": 4452, "\u2581exact": 4453, "else": 4454, "\u2581THE": 4455, "\u2581website": 4456, "\u2581\u0441\u0435": 4457, "\u2581types": 4458, "\u2581saf": 4459, "\u2581\u0c2a": 4460, "\u2581received": 4461, "\u2581este": 4462, "\u2581lines": 4463, "\u2581created": 4464, "ika": 4465, "\u2581alt": 4466, "\u2581park": 4467, "\u0ba3\u0bcd\u0b9f": 4468, "\u2581tour": 4469, "\u2581bound": 4470, "\u2581Inter": 4471, "\u2581Pe": 4472, "ibrary": 4473, "\u2581src": 4474, "\u2581hon": 4475, "\u2581install": 4476, "vol": 4477, "\u2581\u00e8": 4478, "\u0bcd\u0b9a": 4479, "%%": 4480, "\u2581extra": 4481, "ych": 4482, "\u2581seem": 4483, "\u09be\u09a6": 4484, "option": 4485, "reate": 4486, "\u2581prior": 4487, "\u2581\u09b2": 4488, "acity": 4489, "II": 4490, "\u2581wait": 4491, "\u2581Acc": 4492, "\u2581pet": 4493, "leep": 4494, "\u0c28\u0c3f": 4495, "\u0947\u091f": 4496, "css": 4497, "\u091c\u0940": 4498, "ris": 4499, "\u2581bill": 4500, "\u0922\u093c": 4501, "PS": 4502, "run": 4503, "\u2581Sm": 4504, "\u092d\u093e": 4505, "rest": 4506, "Map": 4507, "\u2581Sim": 4508, "ady": 4509, "\u2581li": 4510, "\u2581mechan": 4511, "\u2581constant": 4512, "click": 4513, "\u2581effort": 4514, "theta": 4515, "\u2581probably": 4516, "ordin": 4517, "\u2581effects": 4518, "\u2581satisf": 4519, "ete": 4520, "System": 4521, "\u2581mais": 4522, "php": 4523, "\u2581Pa": 4524, "\u092e\u0940": 4525, "\u2581watch": 4526, "\u2581nam": 4527, "\u0902\u0924": 4528, "\u2581contr": 4529, "false": 4530, "\u0bbf\u0b95": 4531, "\u2581modern": 4532, "\u2581except": 4533, "\u2581Mark": 4534, "\u2581levels": 4535, "iday": 4536, "\u2581decl": 4537, "thon": 4538, "Line": 4539, "ria": 4540, "Su": 4541, "\u2581considered": 4542, "\u2581\u0915\u094d": 4543, "\u2581\u091b": 4544, "mar": 4545, "\u093e\u092f": 4546, "\u2581likely": 4547, "\u00e8s": 4548, "\u2581af": 4549, "istry": 4550, "\u2581consist": 4551, "\u0d4d\u200d": 4552, "\u2581email": 4553, "car": 4554, "aker": 4555, "\u2581Park": 4556, "agram": 4557, "\u2581:=": 4558, "\u2581national": 4559, "\u2581https": 4560, "\u2581concern": 4561, "icles": 4562, "\u2581location": 4563, "\u2581\u0434\u0435": 4564, "md": 4565, "oon": 4566, ")}": 4567, "\u2581Log": 4568, "\u092e\u094d": 4569, "ients": 4570, "iques": 4571, "\u2581fre": 4572, "But": 4573, "\u2581radi": 4574, "\u2581\u0431\u043e": 4575, "\u2581limit": 4576, "\u0e2d\u0e07": 4577, "\u2581ago": 4578, "contain": 4579, "\u00e8re": 4580, "ku": 4581, "ming": 4582, "\u2581occur": 4583, "\u2581\u041e": 4584, "\u2581Art": 4585, "ras": 4586, "\u2581sy": 4587, "\u2581activity": 4588, "atur": 4589, "\u0c30\u0c4d": 4590, "\u2581f\u00fcr": 4591, "\u2581fast": 4592, "ospital": 4593, "idget": 4594, "\u2581remain": 4595, "\u2581related": 4596, "\u2581obtained": 4597, "\u2581party": 4598, "artment": 4599, "\u2581===": 4600, "anning": 4601, "Is": 4602, "height": 4603, "\u2581pi": 4604, ")$.": 4605, "output": 4606, "lied": 4607, "\u2581Ver": 4608, "\u2581\u03c0": 4609, "\u2581update": 4610, "inn": 4611, "\u09be\u099c": 4612, "\u2581assert": 4613, "\u2581hope": 4614, "\u2581methods": 4615, "\u2581ing": 4616, "\u2581arr": 4617, "ociety": 4618, "Ab": 4619, "\u0aae\u0abe": 4620, "\u2581accom": 4621, "\u2581compl": 4622, "\u0940\u0921": 4623, "$-": 4624, "\u2581prec": 4625, "\u2581\u0930\u0939\u0947": 4626, "ensity": 4627, "\u2581couple": 4628, "println": 4629, "eff": 4630, "\u2581\u0a95": 4631, "\u2581\u0411": 4632, "\u093f\u0902\u0917": 4633, "ela": 4634, "\u2581\u0905\u092a\u0928\u0947": 4635, "actions": 4636, "itude": 4637, "\u2581experi": 4638, "\u2581\u0906\u091c": 4639, "\u0947\u0932": 4640, "\u2581spect": 4641, "\u093f\u0932\u093e": 4642, "\u2581More": 4643, "ees": 4644, "\u2581vot": 4645, "\u2581believe": 4646, "aligned": 4647, "\u2581tim": 4648, "\u2581Sw": 4649, "airs": 4650, "ira": 4651, "\u2581risk": 4652, "\u2581equip": 4653, "\u2581knowledge": 4654, "\u2581Aug": 4655, "\u0e48\u0e32": 4656, "\u2581attack": 4657, "\u2581anything": 4658, "\u2581sequ": 4659, "CE": 4660, "Input": 4661, "adding": 4662, "From": 4663, "\u2581favor": 4664, "\u2581cry": 4665, "encia": 4666, "\u2581arch": 4667, "\u2581news": 4668, "\u09a8\u09bf": 4669, "\u0bbf\u0bb0": 4670, "sm": 4671, "\u2581Cour": 4672, "\u2581India": 4673, "Up": 4674, "Ed": 4675, "\u2581article": 4676, "\u2581everyone": 4677, "\u2581\u0441\u0430": 4678, "\u2581Russ": 4679, "\u2581cand": 4680, "\u2581models": 4681, "\u2581catch": 4682, "\u2581\u0432\u0438": 4683, "\u2581mes": 4684, "cor": 4685, "\u0435\u043c": 4686, "\u2581influ": 4687, "\u2581parts": 4688, "\u0999\u09cd\u0997": 4689, "\u2581friends": 4690, "\u2581fit": 4691, "\u2581\u0628\u0627": 4692, "iction": 4693, "\u2581uma": 4694, "\u2581North": 4695, "\u2581\u0905\u0927": 4696, "\u0645\u0627": 4697, "\u2581staff": 4698, "\u2581companies": 4699, "\u2581\u0414": 4700, "\u09c0\u09b0": 4701, "\u2581concent": 4702, "\u099b\u09c7\u09a8": 4703, "\u0449\u0438": 4704, "ocket": 4705, "sec": 4706, "\u09c7\u0995\u09c7": 4707, "UE": 4708, "\u2581unique": 4709, "\u2581running": 4710, "cover": 4711, "\u2581\u0648\u0627\u0644": 4712, "});": 4713, "\u2581conduct": 4714, "\u2581AND": 4715, "\u2581takes": 4716, "\u0648\u0627": 4717, "\u2581illustration": 4718, "\u2581micro": 4719, "rate": 4720, "\u2581stop": 4721, "Delta": 4722, "alam": 4723, "Ent": 4724, "iva": 4725, "\u2581recogn": 4726, "\u099f\u09be": 4727, "\u2581provides": 4728, "\u0648\u06ba": 4729, "valid": 4730, "\u2581})": 4731, "\u099a\u09cd": 4732, "\u2581asked": 4733, "\u0c4d\u0c30": 4734, "\u2581learning": 4735, "Listener": 4736, "\u09bf\u09df\u09c7": 4737, "\u2581wel": 4738, "\u2581\u0938\u092c": 4739, "Node": 4740, "\u2581\u00fc": 4741, "\u2581vous": 4742, "\u2581mil": 4743, "\u2581device": 4744, "\u2581equal": 4745, "attle": 4746, "\u0942\u0928": 4747, "pril": 4748, "\u2581events": 4749, "\u2581\u0906\u092a\u0915\u094b": 4750, "anger": 4751, "\u2581\u06c1\u06d2": 4752, "\u2581\u0627\u0644\u0644": 4753, "My": 4754, "oe": 4755, "\u2581ful": 4756, "\u2581manufact": 4757, "\u2581lib": 4758, "\u043f\u0435": 4759, "../": 4760, "acing": 4761, "\u2581store": 4762, "kay": 4763, "request": 4764, "\u0631\u06cc": 4765, "\u2581Gover": 4766, "\u2581additional": 4767, "ipal": 4768, "\u2581RE": 4769, "\u2581\u0938\u0941": 4770, "\u2581window": 4771, "\u2581ord": 4772, "\u2581predict": 4773, "\u2581\u09aa\u09be\u09b0": 4774, "mente": 4775, "cing": 4776, "\u09bf\u09a8\u09bf": 4777, "\u2581<-": 4778, "tty": 4779, "abase": 4780, "\u2581usually": 4781, "\u2581outside": 4782, "aily": 4783, "sqrt": 4784, "\u2581reported": 4785, "\u2581Cons": 4786, ")-": 4787, "ependent": 4788, "\u2581\u0431\u044b": 4789, "\u2581hol": 4790, "\u0e32\u0e23": 4791, "delta": 4792, "\u00e4r": 4793, "vas": 4794, "Content": 4795, "\u2581lab": 4796, "\u09ac\u09bf": 4797, "\u2581het": 4798, "\u2581dog": 4799, "\u2581\u044d\u0442\u043e": 4800, "\u2581sn": 4801, "iger": 4802, "\u2581recent": 4803, "\u0928\u094d\u0939": 4804, "\u092a\u094d": 4805, "\u2581blood": 4806, "\u2581becom": 4807, "\u2581countries": 4808, "Code": 4809, "\u2581\u0d15": 4810, "\u2581Ac": 4811, "########": 4812, "\u2581isolated": 4813, "sets": 4814, "FA": 4815, "}}\\": 4816, "hline": 4817, "status": 4818, "\u2581High": 4819, "\u2581elements": 4820, "ights": 4821, "\u2581icon": 4822, "tab": 4823, "\u2581\u03c3": 4824, "\u2581await": 4825, "ponse": 4826, "\u2581\u0627\u0633": 4827, "\u2581ja": 4828, "\u2581\u3002": 4829, "Dis": 4830, "\u2581een": 4831, "\u0d4d\u0d1f": 4832, "').": 4833, "sa": 4834, "\u2581behav": 4835, "agement": 4836, "avy": 4837, "\u2581\u0e19": 4838, "\u2581\u0995\u09cb": 4839, "\u2581\u0422": 4840, "\u2581regular": 4841, "omb": 4842, "\u0935\u093f": 4843, "\u2581West": 4844, "\u2581click": 4845, "\u2581ple": 4846, "ead": 4847, "ista": 4848, "RAM": 4849, "\u2581itself": 4850, "\u2581\u03ba": 4851, "\u2581items": 4852, "atives": 4853, "\u2581\u0434\u043b\u044f": 4854, "\u2581Red": 4855, "\u2581bank": 4856, "\u2581pal": 4857, "\u0441\u0442\u0432": 4858, "\u2581Phys": 4859, "\u2581fem": 4860, "\u2581ways": 4861, ".-": 4862, "\u093f\u092f\u094b": 4863, "\u2581select": 4864, "\u2581copy": 4865, "\u2581prep": 4866, "\u2581financial": 4867, "MA": 4868, "\u2581increased": 4869, "SR": 4870, "\u0b95\u0bcd\u0b95\u0bc1": 4871, "\u0926\u0940": 4872, "char": 4873, "next": 4874, "\u2581trying": 4875, "\u2581images": 4876, "fty": 4877, "\u0917\u0940": 4878, "\u2581eval": 4879, "\u064a\u0647": 4880, "can": 4881, "\u2581living": 4882, "\u2581maintain": 4883, "istics": 4884, "PO": 4885, "\u2581round": 4886, "\u2581mount": 4887, "\u2581inside": 4888, "\u2581details": 4889, "\u2581longer": 4890, "\u2581coming": 4891, "\u2581Est": 4892, "\u2581decision": 4893, "ega": 4894, "enced": 4895, "\u2581glass": 4896, "ternal": 4897, "\u2581\u0637": 4898, "\u2581Rec": 4899, "\u0d41\u0d02": 4900, "\u2581equation": 4901, "\u2581avec": 4902, "\u2581write": 4903, "\u2581\u0924\u0915": 4904, "\u2581Oct": 4905, "One": 4906, "build": 4907, "\u2581\u043d\u043e": 4908, "train": 4909, "uer": 4910, "\u2581depend": 4911, "\u2581force": 4912, "\u2581popular": 4913, "\u2581evidence": 4914, "\u044e\u0442": 4915, "\u2581hands": 4916, "._": 4917, "\u2581band": 4918, "show": 4919, "\u2581acid": 4920, "\u2581transfer": 4921, "\u2581nos": 4922, "\u2581His": 4923, "\u2581\u2022": 4924, "case": 4925, "\u2581feature": 4926, "ATE": 4927, "\u2581mention": 4928, "\u2581ps": 4929, "\u2581School": 4930, "\u2581\u043c\u0435": 4931, "\u2581repl": 4932, "oms": 4933, "\u2581From": 4934, "\u2581fra": 4935, "cha": 4936, "\u2581former": 4937, "\u064a\u0631": 4938, "ifier": 4939, "\u2581random": 4940, "\u2581\u306e": 4941, "ponents": 4942, "\u2581Some": 4943, "orem": 4944, "\u2581numbers": 4945, "\u2581\u0938\u093f": 4946, "\u2581\u0431\u0443": 4947, "\u2581\u09ac\u09b2": 4948, "\u2581soon": 4949, "emy": 4950, "vey": 4951, "\u2581administ": 4952, "\u0446\u0435": 4953, "\u2581difference": 4954, "\u2581[]:": 4955, "\u0e31\u0e1a": 4956, "\u2581policy": 4957, "\u2581\u0441\u0442\u0430": 4958, "\u2581transform": 4959, "ederal": 4960, "Manager": 4961, "\u2581ni": 4962, "\u0939\u093e\u0902": 4963, "\u2581\u03b1": 4964, "alle": 4965, "rim": 4966, "La": 4967, "Model": 4968, "\u2581Har": 4969, "\u2581described": 4970, "display": 4971, "\u2581games": 4972, "sim": 4973, "Hand": 4974, "\u2581viol": 4975, "El": 4976, "\u2581behind": 4977, "\u2581\u092c\u093e\u0926": 4978, "uary": 4979, "\u0bb3\u0bcd\u0bb3": 4980, "\u2581status": 4981, "\u2581\u0420": 4982, "mical": 4983, "unk": 4984, "\u2581\u0915\u0930\u0947\u0902": 4985, "uge": 4986, "\u2581Get": 4987, "\u2581draw": 4988, "TH": 4989, "\u2581Stud": 4990, "\u2581command": 4991, "\u09bf\u09a4\u09c7": 4992, "\u2581education": 4993, "ares": 4994, "gi": 4995, "\u2581dark": 4996, "lebr": 4997, "kl": 4998, "\u2581http": 4999, "player": 5000, "\u2581prevent": 5001, "\u1ee7a": 5002, "\u2581veh": 5003, "\u2581saw": 5004, "\u0bb0\u0bcd\u0b95": 5005, "older": 5006, "\u2581\u0440\u0430\u0437": 5007, "oo": 5008, "it\u00e9": 5009, "Table": 5010, "\\|": 5011, "\u2581included": 5012, "\u2581stress": 5013, "perty": 5014, "Bar": 5015, "\u2581\u09a7": 5016, "\u2581nothing": 5017, "agon": 5018, "\u0bbf\u0bb2": 5019, "fficient": 5020, "\u2581gives": 5021, "\u2581states": 5022, "\u2581\u0aaa": 5023, "Reg": 5024, "gu": 5025, "\u2581someone": 5026, "anti": 5027, "\u2581tree": 5028, "\u3063\u305f": 5029, "\u2581nil": 5030, "\u2581streng": 5031, "tau": 5032, "ental": 5033, "active": 5034, "di": 5035, "\u2581\u0938\u0940": 5036, "\u093e\u0930\u094d": 5037, "usion": 5038, "\u2581send": 5039, "ondon": 5040, "vest": 5041, "\u2581c\u1ee7a": 5042, "\u201d.": 5043, "Math": 5044, "\u09cd\u09ae": 5045, "\u2581nov": 5046, "Point": 5047, "\u2581wanted": 5048, "rid": 5049, "\u0c28\u0c4d": 5050, "\u2581Sci": 5051, "\u2581security": 5052, "rat": 5053, "\u2581San": 5054, "rak": 5055, "\u2581demand": 5056, "\u2581sound": 5057, "\u2581platform": 5058, "wise": 5059, "\u2581\u091c\u0940": 5060, "\u2581Us": 5061, "\u2581__": 5062, "\u0917\u0930": 5063, "\u2581sen": 5064, "\u2581multiple": 5065, "ethyl": 5066, "png": 5067, "\u0939\u0941": 5068, "ql": 5069, "itable": 5070, "\u2581wer": 5071, "\u2581seems": 5072, "\u2581\\%": 5073, "\u2581multi": 5074, "\u2581\u09a5\u09c7\u0995\u09c7": 5075, "\u2581proced": 5076, "\u304b\u3089": 5077, "ittee": 5078, "\u2581Afric": 5079, "\u2581estim": 5080, "arter": 5081, "\u2581properties": 5082, "\u2581dro": 5083, "\u2581Germ": 5084, "\u2581activities": 5085, "\u2581option": 5086, "infty": 5087, "block": 5088, "\u2581users": 5089, "ague": 5090, "\u2581please": 5091, "\u2581appe": 5092, "Info": 5093, "CL": 5094, "\u4e00\u4e2a": 5095, "Sub": 5096, "\u2581};": 5097, "dir": 5098, "dev": 5099, "\u093e\u0939": 5100, "flow": 5101, "adas": 5102, "\u2581customers": 5103, "\u2581charg": 5104, "ropri": 5105, "event": 5106, "Ser": 5107, "\u09bf\u09b8": 5108, "\u0440\u044f": 5109, "\u2581Sept": 5110, "\u2581slow": 5111, "\u00f6n": 5112, "\u2581sense": 5113, "\u2581\u0b86": 5114, "\u2581(!": 5115, "\u0bbe\u0ba9": 5116, "\u2581student": 5117, "\u2581depart": 5118, "xi": 5119, "\u09ac\u09be\u09b0": 5120, "\u2581fail": 5121, "\u2581gold": 5122, "\u2581\u0938\u094d\u091f": 5123, "Message": 5124, "\u2581official": 5125, "\u09af\u09bc\u09c7": 5126, "table": 5127, "pty": 5128, "Label": 5129, "OW": 5130, "\u2581Er": 5131, "\u2581includes": 5132, "emic": 5133, "\u0935\u0930": 5134, "itation": 5135, "engan": 5136, "\u2581Our": 5137, "\u2581flex": 5138, "\u2581solid": 5139, "based": 5140, "Per": 5141, "\u2581June": 5142, "\u2581associated": 5143, "Control": 5144, "\u2581fig": 5145, "\u2581Dav": 5146, "Click": 5147, "\u2581town": 5148, "\u2581distance": 5149, "\u2581basis": 5150, "\u2581functions": 5151, "inding": 5152, "MP": 5153, "\u2581phone": 5154, "\u043d\u043e\u0432": 5155, "\u2581\u0d35": 5156, "\u53ef\u4ee5": 5157, "\u2581active": 5158, "\u1edbi": 5159, "oi": 5160, "\u2581decre": 5161, "\u09a6\u09cd\u09a7": 5162, "band": 5163, "\u2581Ang": 5164, "\u2581Her": 5165, "web": 5166, "ography": 5167, "wood": 5168, "\u0648\u0645": 5169, "\u2581consum": 5170, "\u3053\u3068": 5171, "\u2581vel": 5172, "}_{\\": 5173, "\u2581inj": 5174, "\u0ba9\u0bcd\u0bb1": 5175, "\u2581Pat": 5176, "\u2581digital": 5177, "\u2581\u0635": 5178, "aches": 5179, "\u2581Your": 5180, "\u2581simply": 5181, "\u2581\u0c15": 5182, "Trans": 5183, "\u0902\u091f": 5184, "\u2581Don": 5185, "\u2581rat": 5186, "\u2581\u0628\u0647": 5187, "cs": 5188, "Windows": 5189, "\u2581om": 5190, "Me": 5191, "\u2581language": 5192, "\u2581immedi": 5193, "\u2581computer": 5194, "\u01b0\u1ee3": 5195, "\u2581defin": 5196, "\u2581\u0995\u09bf": 5197, "\u2581'./": 5198, "thern": 5199, "\u094b\u091c": 5200, "encies": 5201, "\u092a\u093e": 5202, "\u2581transport": 5203, "mml": 5204, "\u2581instead": 5205, "iling": 5206, "\u2581bud": 5207, "\u2581\u09e7": 5208, "\ub2c8\ub2e4": 5209, "\u2581trust": 5210, "aries": 5211, "\u0431\u0438": 5212, "\u2581**": 5213, "\u2581url": 5214, "then": 5215, "una": 5216, "ald": 5217, "\u2581\u0441\u0442": 5218, "tn": 5219, "\u09b0\u09c7": 5220, "\u2581defined": 5221, "\u2581cos": 5222, "\u2581\u0930\u093e\u091c": 5223, "\u2581sav": 5224, "\u2581effective": 5225, "\u2581late": 5226, "oring": 5227, "OP": 5228, "\u2581Inst": 5229, "iento": 5230, "\u2581Brit": 5231, "\u2581door": 5232, "\u2581therefore": 5233, "\u2581\u0915\u094d\u092f\u093e": 5234, "isions": 5235, "reet": 5236, "}},": 5237, "\u2581follows": 5238, "Che": 5239, "\u2581\"\"\"": 5240, "ota": 5241, "\u2581\u0627\u0648\u0631": 5242, "\u2581\u09b8\u09be": 5243, "\u2581NOT": 5244, "export": 5245, "\u2581IS": 5246, "\u2581\u092e\u0939": 5247, "eler": 5248, "\u2581collection": 5249, "\u2581essential": 5250, "\u2581international": 5251, "\u2581bul": 5252, "\u0935\u0940": 5253, "\u2581studies": 5254, "\u2581political": 5255, "bra": 5256, "amin": 5257, "akan": 5258, "ran": 5259, "\u0c38\u0c4d": 5260, "\u2581March": 5261, "comp": 5262, "\u2581regul": 5263, "\u2581leave": 5264, "open": 5265, "\u2581np": 5266, "\u2581written": 5267, "\u2581deep": 5268, "}+\\": 5269, "TE": 5270, "rl": 5271, "\u2581aqu": 5272, "\u2581enter": 5273, "\u2581experiment": 5274, "phone": 5275, "\u0926\u094d": 5276, "jet": 5277, "\u2581prefer": 5278, "\u2581capital": 5279, "\u2581component": 5280, "\u2581direction": 5281, "like": 5282, "\u2581Ent": 5283, "\u2581built": 5284, "lib": 5285, "han": 5286, "isa": 5287, "omen": 5288, "\u2581War": 5289, "\u2581drug": 5290, "yles": 5291, "itory": 5292, "\u2581happy": 5293, "uid": 5294, "\u2581Inc": 5295, "\u2581distribution": 5296, "ford": 5297, "\u2581Ber": 5298, "IA": 5299, "\u2581rot": 5300, "\u2581mel": 5301, "ami": 5302, "\u2581\u0c35": 5303, "\u2581className": 5304, "isation": 5305, "\u2581\u0632": 5306, "\u2581Ant": 5307, "wer": 5308, "\u2581ini": 5309, "rought": 5310, "\u2581sobre": 5311, "\u2581summer": 5312, "\u2581choice": 5313, "\u2581greater": 5314, "\u2581First": 5315, "aby": 5316, "holder": 5317, "mber": 5318, "\u0915\u094d\u091f": 5319, "augh": 5320, "\u2581Fig": 5321, "sin": 5322, "dat": 5323, "\u2581hair": 5324, "\u2581std": 5325, "\u01b0\u1edd": 5326, "duc": 5327, "\u09cb\u0997": 5328, "Fig": 5329, "\u2581ensure": 5330, "unic": 5331, "\u0e17\u0e35\u0e48": 5332, "\u2581mut": 5333, "\u2581border": 5334, "node": 5335, "/>": 5336, "urt": 5337, "ds": 5338, "\u00ecnh": 5339, "\u2581aud": 5340, "\u09a7\u09cd\u09af": 5341, "\u2581assum": 5342, "umin": 5343, "Build": 5344, "\u2581instit": 5345, "\u2581label": 5346, "\u2581choose": 5347, "\u2581Port": 5348, "\u2581node": 5349, "\u2581Def": 5350, "\u2581histor": 5351, "MS": 5352, "bi": 5353, "\u2581mode": 5354, "raz": 5355, "\u03b1\u03b9": 5356, "\u2581Off": 5357, "\u0902\u0938": 5358, "gar": 5359, "\u2581swe": 5360, "\u2581ka": 5361, "\u2581hy": 5362, "\u2581\u0e01": 5363, "ithub": 5364, "\u2581April": 5365, "etch": 5366, "\u2581worth": 5367, "\u2581software": 5368, "\u0942\u092a": 5369, "\u2581reach": 5370, "\u2581situation": 5371, "\u2581pul": 5372, "oman": 5373, "usiness": 5374, "\u2581Sub": 5375, "\u2581President": 5376, "ago": 5377, "\u2581led": 5378, "cia": 5379, "\u2581va": 5380, "\u30c3\u30c8": 5381, "\u2581cert": 5382, "\u2581save": 5383, "\u2581costs": 5384, "\u2581fish": 5385, "\u2581\uc788": 5386, "\u2581heat": 5387, "illed": 5388, "rea": 5389, "\u2581\u3001": 5390, "\u00edt": 5391, "\u306a\u3044": 5392, "\u2581Just": 5393, "\u2581ba": 5394, "\u2581meeting": 5395, "\u2581actual": 5396, "','": 5397, "\u2581demon": 5398, "si": 5399, "jo": 5400, "\u2581altern": 5401, "\u2581designed": 5402, "Menu": 5403, "\u2581symbol": 5404, "\u2581resources": 5405, "}-\\": 5406, "\u2581House": 5407, "\u09a8\u09c7\u09b0": 5408, "\u0930\u094b": 5409, "\u2581song": 5410, "izes": 5411, "spring": 5412, "\u2581subst": 5413, "\u2581\u06a9\u0648": 5414, "\u2581factor": 5415, "\u2581margin": 5416, "\u2581materials": 5417, "\u2581involved": 5418, "\u00e2n": 5419, "\u2581phase": 5420, "orith": 5421, "\u2581English": 5422, "\u2581hat": 5423, "\u0996\u09a8": 5424, "\u2581ur": 5425, "\u2581bes": 5426, "\u2581cool": 5427, "\u2581practice": 5428, "\u043e\u0440": 5429, "SON": 5430, "\u2581construction": 5431, "parent": 5432, "\u2581note": 5433, "\u2581solutions": 5434, "\u2581\u09b8\u0982": 5435, "\u2581\u00e7": 5436, "\u2581rev": 5437, "\u09be\u09ac\u09c7": 5438, "det": 5439, "gn": 5440, "\u2581rock": 5441, "\u2581sea": 5442, "Drawing": 5443, "aled": 5444, "aling": 5445, "\u0435\u0442\u0441\u044f": 5446, "cell": 5447, "\u09be\u0995\u09bf": 5448, "irit": 5449, "\u2581None": 5450, "agen": 5451, "\u2581became": 5452, "\u2581mid": 5453, "\u2581compar": 5454, "last": 5455, "\u2581statement": 5456, "](": 5457, "\u2581\u03bc": 5458, "\u2581throughout": 5459, "\u2581Ke": 5460, "\u2581kom": 5461, "wide": 5462, "\u2581sold": 5463, "\u2581machine": 5464, "\u09be\u09aa": 5465, "Att": 5466, "\u2581directly": 5467, "flo": 5468, "\u2581offers": 5469, "\u2581\u099c\u09a8\u09cd\u09af": 5470, "Step": 5471, "\u2581\u092c\u0940": 5472, "lig": 5473, "\u2581mu": 5474, "Acc": 5475, "\u2581\u0c2e": 5476, "ouncil": 5477, "\u2581thus": 5478, "svg": 5479, "\u2581\u0932\u093e": 5480, "\u0938\u094d\u0925": 5481, "izer": 5482, "\u2581compared": 5483, "\u2581players": 5484, "\u2581investig": 5485, "endant": 5486, "pid": 5487, "\u094d\u0930\u0947": 5488, "\u2581\u092e\u0947": 5489, "\u2581Work": 5490, "SI": 5491, "\u2581conv": 5492, "Em": 5493, "\u2581\u0909\u092a": 5494, "FF": 5495, "\u2581liter": 5496, "\u2581pretty": 5497, "\u2581sample": 5498, "\u2581population": 5499, "\u2581brand": 5500, "\u2581voc": 5501, "ialog": 5502, "but": 5503, "ashing": 5504, "\u2581July": 5505, "\u2581opportunity": 5506, "\u2581themselves": 5507, "\u2581ready": 5508, "\u0932\u094b": 5509, "\u2581apply": 5510, "cz": 5511, "\u2581pun": 5512, "\u2581celebr": 5513, "rad": 5514, "aux": 5515, "nen": 5516, "\u2581Of": 5517, "\u2581deliver": 5518, "\u2581\u0440\u043e": 5519, "\u2581\u0d38": 5520, "base": 5521, "\u0948\u0938\u0947": 5522, "\u099b\u09bf\u09b2": 5523, "\u2581hit": 5524, "\u2581pued": 5525, "\u2581medical": 5526, "\u2581economic": 5527, "\u2581frame": 5528, "Det": 5529, "och": 5530, "\u2581\u043f\u0430": 5531, "rs": 5532, "\u2581lic": 5533, "iven": 5534, "\u2581developed": 5535, "\u2581charge": 5536, "oma": 5537, "eval": 5538, "\u2581rele": 5539, "\u2581selected": 5540, "\u09be\u09a8\u09c7": 5541, "\u2581volume": 5542, "lation": 5543, "\u0ba4\u0bcd\u0ba4\u0bc1": 5544, "\u2581\u0995\u09b0\u09be": 5545, "]{": 5546, "lich": 5547, "Te": 5548, "rupt": 5549, "mitted": 5550, "([": 5551, "\u2581stage": 5552, "illa": 5553, "\u2581Health": 5554, "uth": 5555, "icient": 5556, "\u2581species": 5557, "\u2581dou": 5558, "\u2581scale": 5559, "\u06cc\u0631": 5560, "\u2581Black": 5561, "\u2581numer": 5562, "\u2581\":": 5563, "\u09b0\u09cd\u09ac": 5564, "cap": 5565, "Back": 5566, "game": 5567, "\u2581Austral": 5568, "\u2581recently": 5569, "\u2581Department": 5570, "\u2581avoid": 5571, "\u2581za": 5572, "ji": 5573, "\u0e49\u0e32": 5574, "\u2581suff": 5575, "more": 5576, "\u2581reference": 5577, "\u2581Ret": 5578, "\u2581ki": 5579, "BS": 5580, "\u2581aus": 5581, "\u2581emer": 5582, "\u2581easily": 5583, "\u2581\u0926\u093f\u092f\u093e": 5584, "\u2581operation": 5585, "client": 5586, "\u2581Mat": 5587, "\u2581release": 5588, "\u2581police": 5589, "\u2581Text": 5590, "\u2581acqu": 5591, "\u1ea5t": 5592, "abled": 5593, "has": 5594, "\u2581commer": 5595, "\u2581ability": 5596, "\u2581morning": 5597, "urance": 5598, "\u09b7\u09cd\u099f": 5599, "eps": 5600, "\u2581wonder": 5601, "\u2581customer": 5602, "\u2581connection": 5603, "\u2581trou": 5604, "Selector": 5605, "\u0937\u094d\u091f": 5606, "cher": 5607, "\u2581assess": 5608, "\u2581progress": 5609, "RI": 5610, "\u2581driv": 5611, "\u2581Since": 5612, "\u2581\u0c05": 5613, "erve": 5614, "ses": 5615, "\u2581\u0928\u093e": 5616, "\u2581\u0627\u0644\u062a": 5617, "\u2581names": 5618, "\u2581expression": 5619, "\u2581\u092c\u0928\u093e": 5620, "\u06cc\u062f": 5621, "soft": 5622, "arden": 5623, "iler": 5624, ")^{": 5625, "aly": 5626, "\u2581vert": 5627, "\u2581located": 5628, "ls": 5629, "\u2581remember": 5630, "\u2581hi": 5631, "\u2581\u0633\u06d2": 5632, "\u2581currently": 5633, "\u2581\u0998": 5634, "CA": 5635, "\u0c3e\u0c30": 5636, "\u2581\u0456": 5637, "\u0441\u043a\u0430": 5638, "nya": 5639, "number": 5640, "\u2581Out": 5641, "\u2581Mus": 5642, "[\\": 5643, "pol": 5644, "\u2581towards": 5645, "\u2581safety": 5646, "\u2581stri": 5647, "arily": 5648, "\u2581\u0432\u0430": 5649, "\u2581\u091c\u093f\u0938": 5650, "olean": 5651, "btn": 5652, "header": 5653, "target": 5654, "\u2581absol": 5655, "\u2581Feb": 5656, "ila": 5657, "\u2581\u092c\u0924\u093e": 5658, "push": 5659, "nu": 5660, "\u2581Air": 5661, "\u2581playing": 5662, "\u2581physical": 5663, "ende": 5664, "\u2581sho": 5665, "\u2581dengan": 5666, "\u091a\u093e": 5667, "\u2581himself": 5668, "\u09df\u09be": 5669, "\u2581leaders": 5670, "\u2581goal": 5671, "PL": 5672, "/**": 5673, "\u2581Net": 5674, "\u2581construct": 5675, "\u2581negative": 5676, "\u2581Hol": 5677, "\u093f\u0932\u094d": 5678, "\u2581sich": 5679, "ema": 5680, "iki": 5681, "\u2581ot": 5682, "\u2581increasing": 5683, "\u0902\u0924\u094d\u0930": 5684, "\u0920\u0940": 5685, "\u2581attempt": 5686, "\u2581ded": 5687, "\u2581\u0986\u09b0": 5688, "\u2581kit": 5689, "spec": 5690, "\u0431\u0430": 5691, "ivil": 5692, "\u2581bag": 5693, "ttp": 5694, "\u2581weeks": 5695, "\u2581\u0ab8": 5696, "\u2581drive": 5697, "\u2581Sie": 5698, "\u2581projects": 5699, "\u2581attention": 5700, "\u00fcn": 5701, "\u2581switch": 5702, ",\\": 5703, "\u2581nucle": 5704, "\u2581instance": 5705, "\u0b9f\u0bbf": 5706, "\u2581professional": 5707, "\u2581purpose": 5708, "\u2581nut": 5709, "ancy": 5710, "\u2581America": 5711, "\u2581writing": 5712, "cular": 5713, "\u1ea1i": 5714, "\u2581Here": 5715, "\u2581skin": 5716, "\u2581bur": 5717, "\u2581Sol": 5718, "\u2581shot": 5719, "\u2581accur": 5720, "}.": 5721, "\u2581\u03b5": 5722, "\u2581eine": 5723, "\u2581looks": 5724, "zt": 5725, "\u2581rights": 5726, "\u2581fill": 5727, "semb": 5728, "\u2581August": 5729, "anner": 5730, "\u0913\u0902": 5731, "\u2581nicht": 5732, "asons": 5733, "\u2581files": 5734, "\u0941\u0932": 5735, "\u2581\u092e\u0948\u0902": 5736, "aste": 5737, "send": 5738, "\u2581comment": 5739, "\u2581\u092a\u0939\u0932\u0947": 5740, "\u2581Fe": 5741, "fa": 5742, "\u2581zero": 5743, "\u0639\u062f": 5744, "\u2581lost": 5745, "\u2581\u0939\u094b\u0924\u093e": 5746, "ruit": 5747, "atively": 5748, "req": 5749, "\u2581\u0cae": 5750, "uan": 5751, "\u2581\u0418": 5752, "Activity": 5753, "\u2581trade": 5754, "\u2581Bro": 5755, "\u2581fresh": 5756, "\u2581Mich": 5757, "\u2581\u0909\u0928\u094d\u0939": 5758, "\u064a\u062f": 5759, "\u2581nav": 5760, "\u09a8\u09cd\u09a6": 5761, "\u2581Court": 5762, "}}{": 5763, "\u2581farm": 5764, "\u2581\u0989\u09aa": 5765, "Rec": 5766, "plot": 5767, "eller": 5768, "\u2581whose": 5769, "\u2581appropri": 5770, "Style": 5771, "\u2581\u098f\u0995\u099f\u09bf": 5772, "\u2581observed": 5773, "\u2581Data": 5774, "\u2581\u0bae\u0bc1": 5775, "\u2581motion": 5776, "\u2581wide": 5777, "She": 5778, "\u091c\u093e": 5779, "space": 5780, "\u2581gar": 5781, "OGRAM": 5782, "\u2581maximum": 5783, "\u094d\u092f\u0942": 5784, "\u2581International": 5785, "\u2581restaur": 5786, "\u2581ta": 5787, "\u2581meng": 5788, "\u2581capt": 5789, "AY": 5790, "fit": 5791, "\u2581electron": 5792, "\u2581\u0639\u0644\u0649": 5793, "\u2581\u0915\u0930\u0924\u0947": 5794, "ogen": 5795, "\u2581County": 5796, "Inst": 5797, "\u0915\u094d\u0930": 5798, "\u09c1\u09a8": 5799, "\u2581vir": 5800, "\u2581\u09b9\u09df\u09c7": 5801, "\u2581degree": 5802, "\u2581Test": 5803, "rier": 5804, "hol": 5805, "ker": 5806, "\u2581\u099f": 5807, "\u2581dress": 5808, "\u2581limited": 5809, "CTOGRAM": 5810, "\u2581figure": 5811, "eli": 5812, "\u2581dur": 5813, "\u0441\u0443": 5814, "\u2581\uadf8": 5815, "\u09bf\u09af\u09bc\u09be": 5816, "\u2581sont": 5817, "\u2581China": 5818, "\u2581demonstr": 5819, "Char": 5820, "roy": 5821, "\u2581dies": 5822, "\u099c\u09a8": 5823, "\u0627\u0633": 5824, "Source": 5825, "\u2581reve": 5826, "\u2581Up": 5827, "\u2581vac": 5828, "oding": 5829, "\u2581leading": 5830, "\u2581CH": 5831, "\u2581amb": 5832, "\u2581Set": 5833, "orge": 5834, "\u2581exerc": 5835, "otes": 5836, "ovember": 5837, "\u09b8\u09cd\u09a5": 5838, "\u10d8\u10e1": 5839, "\u2581recommend": 5840, "\u2581View": 5841, "\u2581equipment": 5842, "long": 5843, "\u2581\u092f\u0947": 5844, "\u10d4\u10d1": 5845, "github": 5846, "VID": 5847, "\u2581\u0910": 5848, "\u0434\u044b": 5849, "\u2581ow": 5850, "\u2581fine": 5851, "\u2581\u092d\u093e": 5852, "\u2581ID": 5853, "\u00e9m": 5854, "\u2581constit": 5855, "EC": 5856, "\u2581September": 5857, "\u2581[%": 5858, "\u2581\u0938\u092d\u0940": 5859, "\u2581London": 5860, "ester": 5861, "\u2581allows": 5862, "known": 5863, "\u0ca4\u0ccd": 5864, "dy": 5865, "\u2581cat": 5866, "isi": 5867, "edia": 5868, "\u2581yourself": 5869, "\u00e9d": 5870, "\u2581tro": 5871, "\u2581factors": 5872, "\u2581camera": 5873, "\u2581\u0930\u0939\u093e": 5874, "\u2581stra": 5875, "\u2581\u201e": 5876, "\u2581gave": 5877, "\u2581\u09a6\u09c7\u0996": 5878, "rew": 5879, "eder": 5880, "\u2581\u05d1": 5881, "\u2581organiz": 5882, "\u2581tal": 5883, "\u2581General": 5884, "\u092c\u093e": 5885, "\u2581sales": 5886, "\u2581neigh": 5887, "\u2581fair": 5888, "\u2581isn": 5889, "\u2581Direct": 5890, "TER": 5891, "\u2581prot": 5892, "\u2581\u060c": 5893, "\u2581resid": 5894, "\u2581\u0b9a\u0bc6": 5895, "aks": 5896, "\u2581emp": 5897, "\u2581electric": 5898, "\u2581goes": 5899, "names": 5900, "BC": 5901, "ously": 5902, "oz": 5903, "\u2581tool": 5904, "\u2581primary": 5905, "\u2581ones": 5906, "\u2581\u092c\u0939\u0941": 5907, "\u2581receive": 5908, "level": 5909, "\u09cd\u099a": 5910, "TS": 5911, "\u2581See": 5912, "\u093f\u0916": 5913, "tilde": 5914, "\u2581Die": 5915, "\u2581\u0d05": 5916, "\u201d,": 5917, "\u2581\u0924\u0930": 5918, "\u2581\u0686": 5919, "UI": 5920, "vare": 5921, "\u2581\u091c\u093e\u090f": 5922, "\u043a\u0435": 5923, "\"))": 5924, "\u0ab5\u0abe": 5925, "\u2581approxim": 5926, "\u2581challeng": 5927, "anda": 5928, "(-": 5929, "product": 5930, "\u2581comfort": 5931, "ersion": 5932, "\u2581disease": 5933, "\u2581worked": 5934, "iring": 5935, ")=\\": 5936, "\u2581priv": 5937, "\u4f7f\u7528": 5938, "format": 5939, "raphics": 5940, "\u2581server": 5941, "uate": 5942, "\u0926\u0947\u0936": 5943, "\u2581bottom": 5944, "\u2581Mor": 5945, "\u2581mother": 5946, "\u2581Ben": 5947, "\u0c02\u0c26": 5948, "arlier": 5949, "Client": 5950, "\u2581\u0645\u0639": 5951, "ecause": 5952, "dim": 5953, "amera": 5954, "\u2581della": 5955, "aren": 5956, "\u2581filter": 5957, "rench": 5958, "\u2581Form": 5959, "\u2581((": 5960, "kin": 5961, "\u2581Techn": 5962, "amily": 5963, "\u2581/*": 5964, "\u0936\u094d": 5965, "react": 5966, "\u0942\u0930": 5967, "\u093e\u0928\u0940": 5968, "\u2581\u0d28": 5969, "\u2581Bank": 5970, "\u09b7\u09cd": 5971, "Figure": 5972, "object": 5973, "\u0d2f\u0d3f": 5974, "\u2581club": 5975, "ship": 5976, "close": 5977, "\u2581While": 5978, "eah": 5979, "\u2581len": 5980, "\u2581\u0627\u0633\u062a": 5981, "umerate": 5982, "\u2581pow": 5983, "\u2581decor": 5984, "args": 5985, "write": 5986, "\u2581tod": 5987, "Go": 5988, "\u2581root": 5989, "ians": 5990, "Gener": 5991, "\u043b\u0456": 5992, "\u043b\u0435\u043d": 5993, "\u2581\u0907\u0928": 5994, "\u2581untuk": 5995, "aciones": 5996, "rum": 5997, "////////": 5998, "idden": 5999, "getElement": 6000, "\u2581pu": 6001, "\u2581\u0915\u0939\u093e": 6002, "\u09c7\u09b2": 6003, "sor": 6004, "first": 6005, "\u2581\u043f\u043e\u0434": 6006, "\u2581Service": 6007, "\u043d\u0430\u044f": 6008, "\u0c32\u0c41": 6009, "update": 6010, "summary": 6011, "\u2581hydro": 6012, "\u2581reading": 6013, "\u2581\u09ae\u09c1": 6014, "osis": 6015, "(){": 6016, "\u0935\u0947": 6017, "\u09a4\u09cd\u09b0": 6018, "\u2581insp": 6019, "urrent": 6020, "\u0902\u0927": 6021, "\u2581Center": 6022, "itect": 6023, "clude": 6024, "\u2581sel": 6025, "\u2581\u0d2e": 6026, "\u2581January": 6027, "psilon": 6028, "\u2581middle": 6029, "lam": 6030, "\u09a4\u09be": 6031, "abil": 6032, "Us": 6033, "\u0940\u0921\u093f\u092f\u094b": 6034, "\u2581requirements": 6035, "gest": 6036, "\u2581\u09b9\u0987": 6037, "\u2581als": 6038, "uffer": 6039, "\u093f\u0915\u093e": 6040, "\u2581\u09ac\u09cd\u09af": 6041, "\u2581Il": 6042, "\u2581sex": 6043, "\u043d\u0438\u0439": 6044, "\u09a6\u09c7\u09b6": 6045, "pace": 6046, "local": 6047, "\u0436\u043d\u043e": 6048, "\u2581moving": 6049, "\u2581mole": 6050, "\u2581func": 6051, "hal": 6052, "getElementById": 6053, "\u2581determine": 6054, "\u2581applied": 6055, "\u2581Japan": 6056, "\u00f5es": 6057, "\u0924\u0930": 6058, "avax": 6059, "\u2581handle": 6060, "term": 6061, "\u2581situ": 6062, "\u2581Dist": 6063, "\u2581letter": 6064, "\u2581King": 6065, "ignment": 6066, "\u2581virt": 6067, "istory": 6068, "\u094b\u091f": 6069, "\u2581advant": 6070, "\u2581\u0939\u093e": 6071, "\u2581upd": 6072, "\u2581theory": 6073, "\u2581began": 6074, "Pan": 6075, "struct": 6076, "\u2581quickly": 6077, "weight": 6078, "\u2581basic": 6079, "ocol": 6080, "\u2581carry": 6081, "\u2581central": 6082, "\u2581picture": 6083, "\u2581aspect": 6084, "\u2581Di": 6085, "estern": 6086, "witter": 6087, "\u2581\u0c38": 6088, "\u2581\u043a\u043e\u0442\u043e": 6089, "menu": 6090, "adow": 6091, "\u2581drink": 6092, "\u2581fight": 6093, "\u2581\u0935\u0940\u0921\u093f\u092f\u094b": 6094, "\u2581produced": 6095, "\u2581somet": 6096, "\u2581contains": 6097, "\u0902\u092a": 6098, "oti": 6099, "\u2581az": 6100, "\u2581contribut": 6101, "core": 6102, "\u2581\u092d\u093e\u0930": 6103, "las": 6104, "\u09ae\u09be\u09a8": 6105, "ptions": 6106, "Forms": 6107, "\u2581PI": 6108, "venue": 6109, "\u2581Government": 6110, "\u2581brought": 6111, "\u2581highly": 6112, "\u2581matrix": 6113, "\u2581eyes": 6114, "\u2581TV": 6115, "\u0915\u094d\u0938": 6116, "enge": 6117, "\u2581n\u00e3o": 6118, "\u2581\u05d0": 6119, "SP": 6120, "\u2581interesting": 6121, "\u2581Sen": 6122, "ocr": 6123, "eds": 6124, "haps": 6125, "Response": 6126, "bum": 6127, "\u2581famil": 6128, "ungen": 6129, "\u2581skills": 6130, "\u2581($": 6131, "apping": 6132, "\u2581wrong": 6133, "\u2581Mal": 6134, "\u0628\u0631": 6135, "NE": 6136, "\u2581parameters": 6137, "\u2581labor": 6138, "etic": 6139, "\u2581\u0aa4": 6140, "():": 6141, "\u2581\u0645\u06cc": 6142, "<<": 6143, "\u2581vict": 6144, "\u2581internal": 6145, "mooth": 6146, "\u2581\u0441\u0438": 6147, "grad": 6148, "\u2581\u0938\u0915\u0924\u0947": 6149, "\u2581\u0935\u0930\u094d": 6150, "\u2581although": 6151, "eline": 6152, "\u2581wa": 6153, "\u2581join": 6154, "ifest": 6155, "\u2581Day": 6156, "\u2581rule": 6157, "\u2581\u00ee": 6158, "\u2581\u067e\u0631": 6159, "params": 6160, "std": 6161, "emos": 6162, "host": 6163, "\u3044\u308b": 6164, "hest": 6165, "ensions": 6166, "\u2581py": 6167, "\u2581Instit": 6168, "sol": 6169, "\u2581\u0935\u0939": 6170, "\u2581cast": 6171, "\u2581feet": 6172, "\u093f\u091f": 6173, "gs": 6174, "iro": 6175, "\u2581lives": 6176, "\u2581\u00e1": 6177, "\u2581uses": 6178, "\u2581\u09aa\u09be": 6179, "\u2581\u09b8\u09cd\u09ac": 6180, "\u30c3\u30af": 6181, "\u2581applications": 6182, "aign": 6183, "\u2581throw": 6184, "\u2581determined": 6185, "\u2581liqu": 6186, "\u043e\u0431": 6187, "rec": 6188, "ci\u00f3n": 6189, "Read": 6190, "\u2581\u0628\u0631": 6191, "\u2581fields": 6192, "\u0448\u0430": 6193, "ulf": 6194, "\u2581proposed": 6195, "\u2581collect": 6196, "iber": 6197, "\u2581October": 6198, "\u2581Calif": 6199, "efore": 6200, "project": 6201, "pite": 6202, "\u2581Pal": 6203, "miss": 6204, "\u2581serious": 6205, "utive": 6206, "\u2581president": 6207, "\u2581allowed": 6208, "!--": 6209, "\u2581render": 6210, "\u2581metal": 6211, "\u2581presented": 6212, "\u2581patient": 6213, "\u2581kids": 6214, "\u0d19\u0d4d": 6215, ")$,": 6216, "iers": 6217, "\u2581firm": 6218, "\u2581presence": 6219, "\u2581lack": 6220, "\u2026\u2026": 6221, "\u2581\u0925\u0940": 6222, "AND": 6223, "\u2581rates": 6224, "\u2581Indian": 6225, "\u0cb2\u0ccd": 6226, "\u2581est\u00e1": 6227, "\u2581\u0e41": 6228, "inder": 6229, "\u2581shape": 6230, "enty": 6231, "\u2581mess": 6232, "\u2581candid": 6233, "har": 6234, "\u2581sale": 6235, "\u2581variety": 6236, "\u2581components": 6237, "aka": 6238, "otion": 6239, "\u2581nie": 6240, "\u09be\u0995\u09bf\u09b8\u09cd\u09a4": 6241, "rowser": 6242, "\u2581November": 6243, "anta": 6244, "\u2581enh": 6245, "\u2581\u09a1": 6246, "\u2581spring": 6247, "\u2581Det": 6248, "\u2581books": 6249, "\u2581starting": 6250, "\u092f\u0947": 6251, "\u043e\u043d": 6252, "\u2581adjust": 6253, "\u2581tor": 6254, "aven": 6255, "\u2581c\u00e1c": 6256, "TO": 6257, "\u2581\u06a9\u0627": 6258, "After": 6259, "ulated": 6260, "\u2581organization": 6261, "\u2581temp": 6262, "amm": 6263, "bin": 6264, "source": 6265, "\u0446\u0438\u0438": 6266, "\u2581lay": 6267, "\u2581larger": 6268, "\u2581completely": 6269, "DB": 6270, "\u2581nor": 6271, "\u2581Bi": 6272, "\u2581Associ": 6273, "\u2581Table": 6274, "response": 6275, "\u2581tut": 6276, "\u2581\u00fa": 6277, "icas": 6278, "lem": 6279, "connect": 6280, "\u2581square": 6281, "\u2581auto": 6282, "\u2581mys": 6283, "]);": 6284, "\u2581Vol": 6285, "\u2581emb": 6286, "rief": 6287, "\u2581True": 6288, "nie": 6289, "\u2581nice": 6290, "\u00f3w": 6291, "\u2581pel": 6292, "\u2581imag": 6293, "Do": 6294, "\u2581giving": 6295, "\u2581parents": 6296, "raf": 6297, "acer": 6298, "\u2581dry": 6299, "\u2581\u092c\u0939\u0941\u0924": 6300, "\u0445\u0430": 6301, "Start": 6302, "\u2581notice": 6303, "\u0e31\u0e19": 6304, "ERS": 6305, "root": 6306, "card": 6307, "\u2581Group": 6308, "\u2581roll": 6309, "\u2581storage": 6310, "\u2581milit": 6311, "Default": 6312, "\u0aa8\u0ac7": 6313, "acht": 6314, "berg": 6315, "\u2581tend": 6316, "\u2581score": 6317, "\u2581vill": 6318, "\u2581Sal": 6319, "vari": 6320, "\u2581\u0938\u094d\u0925": 6321, "\u2581UK": 6322, "ifying": 6323, "\u2581\u09aa\u09b0\u09bf": 6324, "hood": 6325, "\u2581\u0627\u0632": 6326, "\u2581credit": 6327, "win": 6328, "CD": 6329, "\u2581existing": 6330, "\u2581dynam": 6331, "\u2581strength": 6332, "rive": 6333, "\u2581career": 6334, "\u2581cab": 6335, "\u2581\u0c1a": 6336, "anto": 6337, "\u2581safe": 6338, "\u2581sust": 6339, "\u2581fully": 6340, "netic": 6341, "\u2581aim": 6342, "\u2581cart": 6343, "}}$": 6344, "\u2581felt": 6345, "\u0bbe\u0bb0": 6346, "\u2581piece": 6347, "ABLE": 6348, "\u2581remove": 6349, "\u2581achieve": 6350, "\u1ed9t": 6351, "\u2581layer": 6352, "\u2581father": 6353, "IF": 6354, "\u2581\u00e9t": 6355, "\u2581poly": 6356, "lu": 6357, "querySelector": 6358, "CON": 6359, "\u2581produce": 6360, "\u2581assist": 6361, "\u2581tamb": 6362, "\u0ca8\u0ccd": 6363, "\u2581hous": 6364, "\u2581ci": 6365, "\u2581rules": 6366, "house": 6367, "alty": 6368, "\u2581legal": 6369, "\u2581seek": 6370, "iciency": 6371, "That": 6372, "\u2581linear": 6373, "\u2581touch": 6374, "Location": 6375, "\u2581daily": 6376, "\u2581\u043b\u0438": 6377, "vention": 6378, "ieved": 6379, "\u2581\u09a4\u09be\u09b9": 6380, "\u2581stream": 6381, "\u2581paid": 6382, "\u2581args": 6383, "\u2581December": 6384, "\u2581esc": 6385, "author": 6386, "\u2581movie": 6387, "\u2581\u0432\u0441\u0435": 6388, "\u2581\u0938\u0930": 6389, "\u062f\u0647": 6390, "amento": 6391, "gener": 6392, "\u09a6\u09bf": 6393, "\u3055\u308c": 6394, "\u2581Cap": 6395, "antes": 6396, "\u2581aux": 6397, "Rep": 6398, "ashion": 6399, "\u2581Main": 6400, "\u2581cit": 6401, "\u2581tom": 6402, "\u2581\u0915\u0941\u091b": 6403, "\u092a\u0940": 6404, "\u03b9\u03ba": 6405, "ounced": 6406, "\u2581clin": 6407, "\u1ebft": 6408, "AGE": 6409, "\u2581station": 6410, "chi": 6411, "\u2581particularly": 6412, "\u2581floor": 6413, "\u0644\u06cc": 6414, "ael": 6415, "idade": 6416, "\u2581benefits": 6417, "\u2581showed": 6418, "\u2581CON": 6419, "\u2581saying": 6420, "rio": 6421, "\u2581yield": 6422, "empl": 6423, "\u2581\u091c\u093e\u0924\u093e": 6424, "\u2581cloud": 6425, "\u2581forest": 6426, "counter": 6427, "rote": 6428, "\u2581supply": 6429, "****************": 6430, "\u2581ko": 6431, "\u2581surpr": 6432, "\u0947\u0902\u091f": 6433, "ename": 6434, "\u0648\u0633": 6435, "\u2581tools": 6436, "\u2581\u00b7": 6437, "Om": 6438, "\u2581reduce": 6439, "\u2581detect": 6440, "idos": 6441, "ricult": 6442, "\u2581\"\\": 6443, "\u0441\u0442\u0432\u043e": 6444, "Now": 6445, "rome": 6446, "a\u00e7\u00e3o": 6447, "\u2581\u0cb8": 6448, "process": 6449, "ccc": 6450, "\u2581kon": 6451, "\u2581stru": 6452, "ffee": 6453, "________": 6454, "null": 6455, "\u2581tit": 6456, "store": 6457, "server": 6458, "CR": 6459, "under": 6460, "ez": 6461, "IO": 6462, "\u2581download": 6463, "\u2581Ma": 6464, "n\u00ed": 6465, "\u3042\u308b": 6466, "\u2581prepar": 6467, "\u2581hour": 6468, "\u2581published": 6469, "\u00e9g": 6470, "\u2581variable": 6471, "\u2581bien": 6472, "press": 6473, "\u2581motor": 6474, "\u2581Google": 6475, "\u2581Sa": 6476, "\u2581fat": 6477, "\u2581session": 6478, "varepsilon": 6479, "\u2581cm": 6480, "Let": 6481, "android": 6482, "\u2581auch": 6483, "\u2581doc": 6484, "\u2581plants": 6485, "\u2581Sur": 6486, "\u2581Tra": 6487, "\u0631\u064a": 6488, "bu": 6489, "\u2581\u00bb": 6490, "\u2581\u0413": 6491, "\u2581description": 6492, "van": 6493, "\u2581sometimes": 6494, "\u2581slight": 6495, "\u2581ju": 6496, "clusion": 6497, "\u2581Research": 6498, "outer": 6499, "\u06be\u06cc": 6500, "\u2581Spec": 6501, "components": 6502, "\u2581Company": 6503, "\u2581p\u00e5": 6504, "\u0432\u0435\u0440": 6505, "\u2581ult": 6506, "UP": 6507, "\u2581tip": 6508, "(&": 6509, "NS": 6510, "\u2581resource": 6511, "akt": 6512, "\u0d2a\u0d4d": 6513, "\u2581setting": 6514, "raint": 6515, "frame": 6516, "\u2581earlier": 6517, "\u2581format": 6518, "\u2581\u0438\u043d": 6519, "\u0441\u043f\u043e": 6520, "\u2581Develop": 6521, "\u0456\u0432": 6522, "iner": 6523, "\u2581latest": 6524, "aba": 6525, "ruary": 6526, "\u2581prices": 6527, "actory": 6528, "\u0c32\u0c4b": 6529, "\u2581fixed": 6530, "\u2581Post": 6531, "\u2581\u099c\u09be\u09a8": 6532, "\u2581anyone": 6533, "\u2581beginning": 6534, "\u2581closed": 6535, "\u2581fol": 6536, "azione": 6537, "\u2581smart": 6538, "Compat": 6539, "\u2581culture": 6540, "\u2581capacity": 6541, "\u2581Also": 6542, "\u2581\u05de": 6543, "\u2581decided": 6544, "\u2581\u0906\u0939\u0947": 6545, "\u0433\u0440\u0430": 6546, "\u2581Math": 6547, "\u2581Met": 6548, "\u2581ideas": 6549, "\u2581\u0938\u094b": 6550, "\u2581mobile": 6551, "BA": 6552, "TR": 6553, "\u2581paint": 6554, "\u2581steps": 6555, "oom": 6556, "\u2581dir": 6557, "\u0995\u09be": 6558, "\u2581opin": 6559, "\u2581excell": 6560, "\u0948\u0928": 6561, "\u2581Super": 6562, "\u2581Law": 6563, "icos": 6564, "acement": 6565, "\u2581relev": 6566, "enumerate": 6567, "\u2581stick": 6568, "\u09aa\u09cd\u09b0": 6569, "dr": 6570, "\u2581memory": 6571, "try": 6572, "\u2581wind": 6573, "\u2581\u05dc": 6574, "yr": 6575, "\u2581apart": 6576, "\u2581\u0935\u0947": 6577, "lik": 6578, "\u2581\u09aa\u09be\u0995\u09bf\u09b8\u09cd\u09a4": 6579, "\u2581\u092c\u093e\u0924": 6580, "\u2581formula": 6581, "\u2581dead": 6582, "\u094d\u0932": 6583, "\u2581chance": 6584, "\u2581processes": 6585, "\u2581rob": 6586, "attr": 6587, "\u2581\u091a\u093e\u0939": 6588, "\u2581eight": 6589, "\u2581meaning": 6590, "\u2581ww": 6591, "iny": 6592, "\u09cd\u09a8": 6593, "EY": 6594, "\u2581successful": 6595, "\u2581math": 6596, "PA": 6597, "olf": 6598, "\u094d\u0930\u093e": 6599, "\u2581doll": 6600, "ques": 6601, "pload": 6602, "\u2581algorith": 6603, "=\"#": 6604, "\u2581<=": 6605, "\u2581norm": 6606, "\u2581programs": 6607, "\u2581reaction": 6608, "\u2581jo": 6609, "\u2581\"$": 6610, "\u2581understanding": 6611, "\u2581\u0925\u0947": 6612, "\u2581Mag": 6613, "\u2581plans": 6614, "lands": 6615, "\u00e1l": 6616, "framework": 6617, "\u2581consult": 6618, "\u2581respectively": 6619, "\u2581bond": 6620, "\u0442\u0435\u043b\u044c": 6621, "inct": 6622, "\u2581lock": 6623, "\u2581Dan": 6624, "\u2581\u0625": 6625, "ornia": 6626, "\u2581partners": 6627, "anged": 6628, "\u0915\u093f\u0928": 6629, "\u2581units": 6630, "\u2581Thus": 6631, "iments": 6632, "\u2581\u0431\u0430": 6633, "\u2581hospital": 6634, "\u2581commercial": 6635, "ova": 6636, "\u2581earn": 6637, "\u2581connected": 6638, "call": 6639, "\u09b2\u09be\u09ae": 6640, "\u2581followed": 6641, "\u2581Dem": 6642, "\u2581\u09e8": 6643, "\u2581Char": 6644, "omas": 6645, "icrosoft": 6646, "\u2581science": 6647, "\u2581flat": 6648, "peed": 6649, "\u00f1o": 6650, "\u2581counter": 6651, "sch": 6652, "iform": 6653, "Co": 6654, "\u2581providing": 6655, "\u2581encour": 6656, "\u2581played": 6657, "\u2581relative": 6658, "\u2581\u0631\u0627": 6659, "\u2581amaz": 6660, "\u2581\u0447\u0435": 6661, "\u2581\u06cc": 6662, "\u2581Rem": 6663, "PRO": 6664, "default": 6665, "\u2581places": 6666, "\u2581forms": 6667, "CTION": 6668, "\u0930\u094d\u092e": 6669, "\u2581Serv": 6670, "\u0442\u044c\u0441\u044f": 6671, "\u2581traditional": 6672, "Interface": 6673, "\u2581broad": 6674, "\u2581operations": 6675, "\u0bc1\u0b95": 6676, "cles": 6677, "stream": 6678, "\u2581Class": 6679, "bbox": 6680, "\u2581birth": 6681, "\u093f\u0936": 6682, "eting": 6683, "\u2581useful": 6684, "\u2581optim": 6685, "ju": 6686, "\u2581Sam": 6687, "uman": 6688, "\u2581\u091c\u093e\u0928": 6689, "\u2581\u043f\u0435\u0440\u0435": 6690, "\u2581Arm": 6691, "\u2581changed": 6692, "\u2581European": 6693, "\u30a4\u30f3": 6694, "\u043b\u044b": 6695, "\u2581wat": 6696, "\u2581established": 6697, "inger": 6698, "ugin": 6699, "Am": 6700, "\u2581resol": 6701, "\u2581\u0985\u09ac": 6702, "ctors": 6703, "\u2581photos": 6704, "abb": 6705, "\u2581Fin": 6706, "sg": 6707, "fol": 6708, "\u2581scient": 6709, "\u2581innov": 6710, "\u00e0y": 6711, "\u2581therm": 6712, "\u2581nu": 6713, "\u0440\u043e\u0432\u0430": 6714, "\u2581Hel": 6715, "\u2581cru": 6716, "Status": 6717, "\u2581Street": 6718, "python": 6719, "Fl": 6720, "Web": 6721, "\u0440\u043e\u0432": 6722, "ying": 6723, "\u062a\u0631": 6724, "total": 6725, "nel": 6726, "\u2581pair": 6727, "\u2581reserv": 6728, "\u2581www": 6729, "\u2581growing": 6730, "itar": 6731, "\u01b0\u1ee3c": 6732, "\u2581protection": 6733, "asa": 6734, "\u2581Je": 6735, "draw": 6736, "\u2581strateg": 6737, "URL": 6738, "\u2581sell": 6739, "enses": 6740, "\u2581pou": 6741, "\u2581Figure": 6742, "\u2581dari": 6743, "*/": 6744, "\u2581sleep": 6745, "Mode": 6746, "\u0d41\u0d28\u0d4d\u0d28": 6747, "'.": 6748, "\u2581critical": 6749, "akers": 6750, "ART": 6751, "\u2581Bel": 6752, "\u0644\u0645": 6753, "\u2581\u0995\u09b0\u09a4\u09c7": 6754, "\u2581\u0935\u093e\u0932\u0947": 6755, "\u2581\u091a\u0941": 6756, "\u2581gets": 6757, "lections": 6758, "Link": 6759, "\u2581TO": 6760, "\u0aa8\u0abe": 6761, "\u2581protein": 6762, "\u2581\u0a9b": 6763, "Comm": 6764, "\u2581\u0905\u0928\u0941": 6765, "lose": 6766, "\u2581bey": 6767, "\u2581Paul": 6768, "Param": 6769, "\u2581uns": 6770, "\u2581vent": 6771, "\u092e\u093e\u0928": 6772, "remove": 6773, "email": 6774, "\u2581becomes": 6775, "Application": 6776, "\u0d4d\u0d2f": 6777, "\u2581expand": 6778, "\u2581adult": 6779, "\u2581appropriate": 6780, "\u2581\u09a4\u09bf\u09a8\u09bf": 6781, "\u2581overall": 6782, "column": 6783, "\u2581sand": 6784, "\u094b\u0932": 6785, "CS": 6786, "\u2581fab": 6787, "\u09c3\u09a4": 6788, "\u2581secret": 6789, "ocity": 6790, "\u2581(\"": 6791, "\u2581\u0986\u09aa": 6792, "aten": 6793, "\u2581wave": 6794, "etime": 6795, "free": 6796, "\u091a\u094d\u091a": 6797, "\u2581surv": 6798, "\u2581selection": 6799, "\u2581carbon": 6800, "reci": 6801, "iance": 6802, "\u2581float": 6803, "Task": 6804, "unit": 6805, "\u0bb2\u0bc8": 6806, "\u2581showing": 6807, "\u2581repe": 6808, "\u2581Date": 6809, ".\\": 6810, "\u2581released": 6811, "\u2581turned": 6812, "\u092f\u0930": 6813, "ipe": 6814, "\u2581\u043a\u0430\u043a": 6815, "\u2581generally": 6816, "\u2581\u0645\u0627": 6817, "\u2581register": 6818, "\u2581seven": 6819, "\u2581esta": 6820, "riter": 6821, "\u2581David": 6822, "func": 6823, "\u2581Program": 6824, "\u2581\u0b92": 6825, "\u2581dar": 6826, "\u2581heard": 6827, "\u2581investment": 6828, "\u2581independent": 6829, "ORT": 6830, "\u2581menu": 6831, "cn": 6832, "\u2581\u0627\u0644\u0639": 6833, "\u2581Mart": 6834, "\u2581mac": 6835, "iden": 6836, "\u043c\u044b": 6837, "\u2581ich": 6838, "\u2581Na": 6839, "\u2581mir": 6840, "\u2581Therefore": 6841, "\u2581immediately": 6842, "\u2581extrem": 6843, "\u2581\u0c95": 6844, "Check": 6845, "\u2581Les": 6846, "\u2581\u0111i": 6847, "mid": 6848, "\u0446\u0456": 6849, "\u2581straight": 6850, "acters": 6851, "\u0d1a\u0d4d": 6852, "\u2581wife": 6853, "\u2581\u0915\u0930\u0928\u093e": 6854, "Ne": 6855, "\u0441\u044b": 6856, "\u2581\u0bb5\u0bbf": 6857, "while": 6858, "\u2581\u0627\u0644\u0627": 6859, "ildren": 6860, "\u2581finally": 6861, "osa": 6862, "\u2581Home": 6863, "EO": 6864, "duction": 6865, "uto": 6866, "\u2581>=": 6867, "\u2581behavior": 6868, "\u2581establish": 6869, "Route": 6870, "\u2581och": 6871, "\u2581Prof": 6872, "\u0915\u094d\u0937\u093e": 6873, "actor": 6874, "context": 6875, "\u2581\u0939\u0941\u090f": 6876, "\u2581wild": 6877, "\u2581discover": 6878, "\u2581\u0905\u092c": 6879, "\u2581pp": 6880, "\u2581Commission": 6881, "\u2581pap": 6882, "\u0939\u0930": 6883, "\u2581\u0905\u0927\u093f\u0915": 6884, "\u2581Board": 6885, "ori": 6886, "outes": 6887, "fin": 6888, "varphi": 6889, "\u2581Use": 6890, "\u2581impl": 6891, "\u2581\u0930\u0942\u092a": 6892, "oday": 6893, "\u0930\u094d\u091f": 6894, "\u2581leaves": 6895, "imo": 6896, "\u2581ign": 6897, "\u2581rend": 6898, "\u2581hear": 6899, "oria": 6900, "\u2581relig": 6901, "\u2581sz": 6902, "\u2581\u00a3": 6903, "\u30fc\u30eb": 6904, "\u0902\u0915": 6905, "\u2581\u0628\u0627\u0644": 6906, "Black": 6907, "Handler": 6908, "oles": 6909, "fill": 6910, "geq": 6911, "\u2581\u0935\u094d\u092f": 6912, "\u2581eu": 6913, "ville": 6914, "\u2581passed": 6915, "select": 6916, "udent": 6917, "ainer": 6918, "uster": 6919, "\u2581ru": 6920, "\u2581mix": 6921, "Override": 6922, "\u2581\u09af\u09be": 6923, "Create": 6924, "\u2581TH": 6925, "icial": 6926, "\u2581rain": 6927, "\u0902\u092c\u0930": 6928, "\u2581mm": 6929, "\u0923\u093e": 6930, "\u2581talking": 6931, "\u6211\u4eec": 6932, "\u2581era": 6933, "\u2581poor": 6934, "}^{-": 6935, "pred": 6936, "\u2581tab": 6937, "\u2581boy": 6938, "\u2581restrict": 6939, "\u2581Web": 6940, "\u2581corpor": 6941, "Vis": 6942, "\u2581\u0915\u094d\u0935": 6943, "\u2581terr": 6944, ",'": 6945, "iders": 6946, "\u2581iz": 6947, "\u2581\u09ad\u09be\u09b0": 6948, "udi": 6949, "\u2581mentioned": 6950, "\u2581employees": 6951, "\u2581ay": 6952, "\u2581signal": 6953, "\u2581\u05e9": 6954, "container": 6955, "\u2581tried": 6956, "jection": 6957, "ois": 6958, "\u2581scen": 6959, "\u2581Sec": 6960, "inese": 6961, "\u2581warm": 6962, "\u2581\u0a86": 6963, "Url": 6964, "ibly": 6965, "split": 6966, "Omega": 6967, "ted": 6968, "\u2581extends": 6969, "undred": 6970, "\u0bbe\u0bb0\u0bcd": 6971, "\u2581thinking": 6972, "OH": 6973, "Write": 6974, "\u09c7\u0987": 6975, "\u2581looked": 6976, "================": 6977, "ingu": 6978, "'),": 6979, "lock": 6980, "ander": 6981, "\u2581\u0917\u0908": 6982, "ban": 6983, "\u2581performed": 6984, ">>": 6985, "\u03b5\u03b9": 6986, "\u2581director": 6987, "\u09ae\u09bf": 6988, "\u2581Mac": 6989, "static": 6990, "\u2581\u0423": 6991, "\u2581medic": 6992, "\u2581\\%$": 6993, "\u091a\u094d": 6994, "\u2581planning": 6995, "\u2581\u0995\u09be": 6996, "itz": 6997, "\u2581beyond": 6998, "aughter": 6999, "\u2581appoint": 7000, "\u2581France": 7001, "\u2581balance": 7002, "\u2581trend": 7003, "Http": 7004, "\u2581reduced": 7005, "\u2581placed": 7006, "\u2581\u092e\u094b": 7007, "AV": 7008, "\u2581marketing": 7009, "\u2581individuals": 7010, "element": 7011, "sembly": 7012, "join": 7013, "\u2581bool": 7014, "\u2581distribut": 7015, "\u2581variables": 7016, "oir": 7017, "NO": 7018, "\u0440\u0430\u0432": 7019, "\u2581monitor": 7020, "\u2581sources": 7021, "kg": 7022, "\u2581\u0432\u0435": 7023, "\u2581\u0921\u093f": 7024, "Gamma": 7025, "\u0631\u0628": 7026, "\u09cd\u09a1": 7027, "\u2581spread": 7028, "Call": 7029, "\u2581cop": 7030, "\u0e23\u0e31\u0e1a": 7031, "Star": 7032, "\u2581\u06a9\u06c1": 7033, "\u2581Ill": 7034, "\u0bbe\u0bb2\u0bcd": 7035, "pes": 7036, "gt": 7037, "\u2581din": 7038, "\u2581aware": 7039, "\u2581divid": 7040, "\u2581corresponding": 7041, "teger": 7042, "pet": 7043, "\u0433\u0443": 7044, "alled": 7045, "\u2581holding": 7046, "cin": 7047, "\u2581pand": 7048, "\u2581electr": 7049, "\u2581\u0995\u09cb\u09a8": 7050, "\u2581\u0995\u09be\u09b0": 7051, "onom": 7052, "\u091a\u0940": 7053, "|\\": 7054, "\u2581Rev": 7055, "l\u0131": 7056, "\u2581alone": 7057, "\u2581Att": 7058, "uted": 7059, "ashington": 7060, "\u2581\u09b9\u09df": 7061, "\u2581Oh": 7062, "\u091a\u0947": 7063, ")+": 7064, "\u2581Mem": 7065, ")]": 7066, "\u2581Other": 7067, "\u2581eye": 7068, "urity": 7069, "\u2581yellow": 7070, "INE": 7071, "\u2581Si": 7072, "\u2581campaign": 7073, "\u2581News": 7074, "\u2581spot": 7075, "ournal": 7076, "igu": 7077, "iente": 7078, "\u2581Minister": 7079, "\u2581smooth": 7080, "\u2581minimum": 7081, "otic": 7082, "\u0acd\u0aaf": 7083, "Open": 7084, ".'": 7085, "\u2581Green": 7086, "\u2581requires": 7087, "\u2581sites": 7088, "\u2581lie": 7089, "txt": 7090, "\u043f\u0443": 7091, "\u2581\u0985\u09a8": 7092, "\u2581sets": 7093, "\u2581income": 7094, "\u2581sector": 7095, "kh": 7096, "\u2581nation": 7097, "\u2581Cong": 7098, "\u03bd\u03b1": 7099, "\u2581smaller": 7100, "ymin": 7101, "\u2581channel": 7102, "\u0baa\u0bcd": 7103, "\u1ec7n": 7104, "asy": 7105, "\u2581Del": 7106, "\u2581creating": 7107, "useum": 7108, "\u2581nearly": 7109, "ikan": 7110, "cro": 7111, "\u2581damage": 7112, "\u2581coordin": 7113, "\u2581volt": 7114, "initely": 7115, "\u2581wooden": 7116, "\u2581Face": 7117, "Post": 7118, "\u2581Nor": 7119, "onic": 7120, "\u2581exactly": 7121, "\u2581\u09b9\u09ac\u09c7": 7122, "\u2581East": 7123, "\u2581Council": 7124, "location": 7125, "perties": 7126, "\u2581sau": 7127, "private": 7128, "\u2581Any": 7129, "\u0645\u0644": 7130, "White": 7131, "\u2581frequency": 7132, "emp": 7133, "\u2581Well": 7134, "xmin": 7135, "\u09ae\u09be": 7136, "\u2581\u0431\u0435": 7137, "poses": 7138, "\u2581sans": 7139, "\u2581transition": 7140, "\u2581bow": 7141, "aught": 7142, "rics": 7143, "\u2581kan": 7144, "\u2581\u0926\u0940": 7145, "\u2581trees": 7146, "\u2581neut": 7147, "xmax": 7148, "uri": 7149, "nam": 7150, "\u2581California": 7151, "\u2581padding": 7152, "\u307e\u3057\u305f": 7153, "\u2581javax": 7154, "ymax": 7155, "ded": 7156, "\u2581core": 7157, "\u2581\u0a85": 7158, "ele": 7159, "\u0c15\u0c41": 7160, "\u2581Press": 7161, "\u2581proceed": 7162, "Product": 7163, "rend": 7164, "\u2581trab": 7165, "Ref": 7166, "\u2581Book": 7167, "Fe": 7168, "springframework": 7169, ">(": 7170, "front": 7171, "DA": 7172, "undle": 7173, "\u0631\u062d": 7174, "swing": 7175, "\u0441\u043b\u0435": 7176, "\u0431\u0435": 7177, "\u2581Over": 7178, "\u2581Check": 7179, "anz": 7180, "\u0acd\u0ab0": 7181, "\u2581-->": 7182, "\u2581diagn": 7183, "\u2581ox": 7184, "ading": 7185, "\u2581huge": 7186, "\u2581initi": 7187, "\u2581schedu": 7188, "\u2581\u0111\u01b0\u1ee3c": 7189, "\u2581\u0932\u0947\u0915\u093f\u0928": 7190, "\u2581parte": 7191, "\u0928\u094b\u0902": 7192, "MENT": 7193, "\u2581interview": 7194, "river": 7195, "\u2581\u00bf": 7196, "^{*": 7197, "\u0927\u094d\u092f": 7198, "Na": 7199, "\u2581blog": 7200, "\u2581Es": 7201, "\u2581tick": 7202, "\u2581Canada": 7203, "\u2581Loc": 7204, "\u2581baby": 7205, "\u2581wed": 7206, "lob": 7207, "\u2581winter": 7208, "\u2581weak": 7209, "ategy": 7210, "Token": 7211, "filter": 7212, "iller": 7213, "\u2581Sund": 7214, "\u2581\u00a7": 7215, "TP": 7216, "\u2581sky": 7217, "URE": 7218, "(=": 7219, "eles": 7220, "rd": 7221, "\u2581British": 7222, "ffect": 7223, "\u2581grant": 7224, "Right": 7225, "\u2581rapid": 7226, "\u0456\u0434": 7227, "\\{": 7228, "\u2581tid": 7229, "\u2581thous": 7230, "emb": 7231, "\u2581ratio": 7232, "ears": 7233, "\u2581entry": 7234, "ulate": 7235, "\u091a\u094d\u091b": 7236, "})$": 7237, "\u2581interpre": 7238, "google": 7239, "parse": 7240, "\u2581batter": 7241, "\u093e\u0930\u094d\u091f": 7242, "---": 7243, "odo": 7244, "\u2581continued": 7245, "\uc73c\ub85c": 7246, "\u2581anti": 7247, "\u2581reports": 7248, "\u0441\u0442\u0432\u0430": 7249, "\u2581February": 7250, "\u2581km": 7251, "vider": 7252, "INT": 7253, "\u2581cryst": 7254, "reme": 7255, "orph": 7256, "\u2581testing": 7257, "\u2581til": 7258, "\u09bf\u09a8\u09cd\u09a4": 7259, "ellig": 7260, "\u2581knew": 7261, "\u2581foreign": 7262, "\u2581Mer": 7263, "\u2581\u0907\u0938\u0915\u0947": 7264, "\u2581surround": 7265, "\u2581drop": 7266, "\u09a8\u09be\u09b0": 7267, "\u05d9\u05dd": 7268, "\u2581\u041f\u043e": 7269, "ULT": 7270, "\u2581sufficient": 7271, "\u2581\u0913": 7272, "ME": 7273, "\u2581heavy": 7274, "\u2581angle": 7275, "\u2581\u0e2d": 7276, "\u2581mig": 7277, "\u2581lov": 7278, "\u2581\u0930\u0939": 7279, "First": 7280, "\u2581cro": 7281, "\u2581\u010d": 7282, "\u2581communication": 7283, "break": 7284, "hent": 7285, "\u2581White": 7286, "\u2581\u0441\u0432\u043e": 7287, "\u0997\u09cd\u09b0": 7288, "\u2581wasn": 7289, "\u2581\u09aa\u09be\u0995\u09bf\u09b8\u09cd\u09a4\u09be\u09a8": 7290, "env": 7291, "\u2581c\u00e1": 7292, "\u2581none": 7293, "\u2581PC": 7294, "\u2581db": 7295, "\u2581movement": 7296, "aria": 7297, "\u2581serve": 7298, "\u2581society": 7299, "\u102d\u102f": 7300, "\u2581\u09aa\u09cd\u09b0\u09a4\u09bf": 7301, "tro": 7302, "\u2581Product": 7303, "\u2581spirit": 7304, "\u2581stuff": 7305, "Run": 7306, "\u2581dut": 7307, "orial": 7308, "TON": 7309, "\u2581highest": 7310, "unity": 7311, "\u2581chapter": 7312, "cu": 7313, "\u2581s\u1ed1": 7314, "End": 7315, "\u2581electro": 7316, "\u2581hyp": 7317, "\u2581\u099b\u09bf\u09b2": 7318, "\u2581plate": 7319, "Br": 7320, "\u2581caused": 7321, "\u05d5\u05ea": 7322, "\u2581Please": 7323, "Init": 7324, "\u2581m\u1ed9t": 7325, "\u2581bon": 7326, "\u2581\u092f\u0939\u093e\u0902": 7327, "OU": 7328, "ech": 7329, "\u2581Sing": 7330, "\u00e4t": 7331, "DF": 7332, "rait": 7333, "\u2581obvious": 7334, "coming": 7335, "\u2581\u0a9c": 7336, "eld": 7337, "\u2581Power": 7338, "\u2581\\\"": 7339, "\u2581Mad": 7340, "align": 7341, "\u2581harm": 7342, "\u2581Name": 7343, "\u2581\uc218": 7344, "\u0444\u0438": 7345, "\u2581\u0926\u094d\u0935": 7346, "\u2581scre": 7347, "bib": 7348, "\u2581\u043d\u0438": 7349, "\u2581loop": 7350, "\u2581helps": 7351, "\u2581convert": 7352, "\u2581exhib": 7353, "\u0917\u0924": 7354, "urer": 7355, "\u0915\u094d\u0924": 7356, "\u2581Sk": 7357, "ructure": 7358, "\u2581devices": 7359, "riend": 7360, "\u2581Rel": 7361, "party": 7362, "\u2581street": 7363, "\u09a5\u09be": 7364, "\u2581samples": 7365, "\u0648\u0628": 7366, "'],": 7367, "well": 7368, "rangle": 7369, "\u2581instr": 7370, "\u2581Section": 7371, "ailed": 7372, "oder": 7373, "\u0431\u044b": 7374, "\u0e21\u0e32": 7375, "area": 7376, "\u2581edge": 7377, "ologies": 7378, "\u2581\u09ac\u09bf\u09b6": 7379, "\u09ae\u09a8": 7380, "endar": 7381, "normal": 7382, "\u2581Los": 7383, "\u2581annual": 7384, "osen": 7385, "\u2581\u0932\u094b\u0917\u094b\u0902": 7386, "\u0d3f\u0d32": 7387, "izar": 7388, "\u2581\u0627\u0644\u0633": 7389, "\u2581\u091c\u092c": 7390, "\u2581clients": 7391, "\u2581eth": 7392, "ae": 7393, "\u2581otherwise": 7394, "\u2581chemical": 7395, "Title": 7396, "\u2581Elect": 7397, "\u2581\u0915\u094b\u0908": 7398, "ishing": 7399, "bur": 7400, "\u2581PICTOGRAM": 7401, "othes": 7402, "\u2581\u043a\u043e\u043d": 7403, "\u0c4d\u0c2f": 7404, "raction": 7405, "\u2581sie": 7406, "entes": 7407, "\u2581purchase": 7408, "aga": 7409, "\u2581async": 7410, "\u2581gain": 7411, "\u2581appears": 7412, "inated": 7413, "window": 7414, "ulations": 7415, "\u2581\u0915\u093e\u092e": 7416, "iat": 7417, "izont": 7418, "\u2581actions": 7419, "imer": 7420, "\u0bbf\u0bb0\u0bc1": 7421, "anging": 7422, "\u2581Public": 7423, "\u2581\u0915\u093f\u0938\u0940": 7424, "\u2581vamos": 7425, "\u2581visual": 7426, "SC": 7427, "itors": 7428, "\u2581Back": 7429, "\u2581College": 7430, "\u2581\u0441\u0443": 7431, "\u0947\u0936\u094d\u091a": 7432, "inally": 7433, "\u0926\u094d\u0927": 7434, "aman": 7435, "\u2581ideal": 7436, "\u0bb3\u0bc8": 7437, "\u2581covered": 7438, "\u1ea1n": 7439, "\u2581attract": 7440, "\u2581mask": 7441, "\u2581ik": 7442, "\u0d24\u0d4d\u0d24\u0d3f": 7443, "\u2581pool": 7444, "\u2581cold": 7445, "aintiff": 7446, "\u2581govern": 7447, "\u094b\u0902\u0928\u0947": 7448, "\u2581Business": 7449, "\u062a\u0627": 7450, "\u2581\u0c85": 7451, "estion": 7452, "\u062f\u0627": 7453, "DIR": 7454, "\u2581Cam": 7455, "\u2581cin": 7456, "\u2581sor": 7457, "\u2581benefit": 7458, "tex": 7459, "ako": 7460, "ressed": 7461, "?\"": 7462, "\u2581maybe": 7463, "\u2581trial": 7464, "\u00f1os": 7465, "\u0437\u0443": 7466, "\u2581interested": 7467, "\u0442\u043e\u0432": 7468, "\u2581\u0627\u0644\u0623": 7469, "\u2581\u043c\u0438": 7470, "\u2581\u0939\u094b\u0928\u0947": 7471, "\u2581magn": 7472, "\u1ebfn": 7473, "\u2581remains": 7474, "\u2581dil": 7475, ".).": 7476, "Fil": 7477, "asta": 7478, "cite": 7479, "\u2581Id": 7480, "\u094d\u092f\u094b\u0902": 7481, "rot": 7482, "\u2581reasons": 7483, "\u0446\u0430": 7484, "big": 7485, "\u2581User": 7486, "\u2581\u0930\u093f": 7487, "\u2581largest": 7488, "\u2581named": 7489, "\u2581incor": 7490, "\u2581\u0915\u094d\u0935\u0947\u0936\u094d\u091a": 7491, "\u2581threat": 7492, "}:": 7493, "\u2581\uc0ac": 7494, "\u2581reflect": 7495, "\u0aae\u0abe\u0a82": 7496, "\u2581thick": 7497, "module": 7498, "\u2581happen": 7499, "\u2581vehicle": 7500, "\u2581sequence": 7501, "\u2581James": 7502, "ono": 7503, "\u2581\u092e\u093f\u0932": 7504, "\u2581carried": 7505, "\u2581diam": 7506, "\u2581ship": 7507, "layer": 7508, "illing": 7509, "SH": 7510, "\u0631\u0641": 7511, "TEXT": 7512, "random": 7513, "\u0cb2\u0ccd\u0cb2": 7514, "scape": 7515, "\u2581excellent": 7516, "\u2581tele": 7517, "anya": 7518, "\u2581exists": 7519, "gin": 7520, "\u2581roy": 7521, "\u2581kar": 7522, "\u2581Que": 7523, "Equ": 7524, "\u2581\u0930\u0916": 7525, "\u00e4n": 7526, "rawn": 7527, "\u0bb2\u0bcd\u0bb2": 7528, "\u2581ses": 7529, "\u2581equival": 7530, "\u2581ahead": 7531, "atin": 7532, "\u094c\u0930": 7533, "\u2581\ud558": 7534, "\u2581adapt": 7535, "\u2581Rich": 7536, "allel": 7537, "\u2581\u0926\u093f\u0928": 7538, "\u2581previously": 7539, "\u2581Av": 7540, "\u0d4d\u0d30": 7541, "\u2581Rober": 7542, "\u043d\u0438\u0438": 7543, "component": 7544, "\u2581strategy": 7545, "\u2581ok": 7546, "\u2581race": 7547, "\u2581payment": 7548, "\u2581hundred": 7549, "atever": 7550, "\u2581\u092c\u093e\u0930": 7551, "\u2581\u092c\u0948": 7552, "\u2581\",": 7553, "\u2581ped": 7554, "QL": 7555, "olar": 7556, "\u2581\u0926\u094b\u0938\u094d\u0924": 7557, "values": 7558, "\u2581sed": 7559, "DR": 7560, "sen": 7561, "\u2581fix": 7562, "\u2581\u0915\u092e": 7563, "\u2581myself": 7564, "document": 7565, "hy": 7566, "++;": 7567, "pop": 7568, "foot": 7569, "\u2581oder": 7570, "bottom": 7571, "asion": 7572, "ests": 7573, "isher": 7574, "\u043d\u044b\u043c": 7575, "\u2581premi": 7576, "rated": 7577, "\u2581Time": 7578, "\u2581characters": 7579, "\u2581\u0939\u093f": 7580, "\u2581\u092e\u093f": 7581, "\u2581\u0939\u094b\u0917\u093e": 7582, "\u0930\u094d\u0938": 7583, "\u2581divers": 7584, "\u2581Gl": 7585, "angan": 7586, "\u0d2e\u0d3e": 7587, "\u2581master": 7588, "bf": 7589, "hav": 7590, "\u2581England": 7591, "SO": 7592, "\u2581upper": 7593, "\u2581jed": 7594, "\u2581texture": 7595, "itemize": 7596, "\u2581hus": 7597, "\u0441\u0442\u0435": 7598, "anges": 7599, "\u2581joint": 7600, "\u2581\u0932\u0917\u093e": 7601, "ALL": 7602, "\u2581\u0a9b\u0ac7": 7603, "\u81ea\u5df1": 7604, "aturday": 7605, "\u2581weather": 7606, "\u2581Open": 7607, "\u0437\u044b": 7608, "\u2581query": 7609, "\u2581ring": 7610, "\u2581fuel": 7611, "\u2581guys": 7612, "\u2581snow": 7613, "psi": 7614, "\u2581consequ": 7615, "\u2581manager": 7616, "temp": 7617, "CP": 7618, "VER": 7619, "\u2581density": 7620, "\u2581Science": 7621, "\u2581analy": 7622, "\u2581returns": 7623, "you": 7624, "\u2581\u0930\u0939\u0940": 7625, "\u2581animal": 7626, "FT": 7627, "\u2581abstract": 7628, "ctx": 7629, "\u2581influence": 7630, "\u2581\u0938\u094d\u0935\u093e": 7631, "water": 7632, "items": 7633, "They": 7634, "\u2581miles": 7635, "\u06cc\u0645": 7636, "\u092a\u0930": 7637, "\u2581\u12e8": 7638, "\u0abe\u0ab0": 7639, "\u2581\"./": 7640, "boot": 7641, "\u2581beach": 7642, "\u2581Wed": 7643, "\u2581healthy": 7644, "\u0644\u064a": 7645, "\u2581amazing": 7646, "\u2581principal": 7647, "iser": 7648, "\u2581cer": 7649, "which": 7650, "erap": 7651, "enz": 7652, "\u2581nous": 7653, "\u0447\u0435\u043d": 7654, "meta": 7655, "screen": 7656, "\u2581Ann": 7657, "\u0e48\u0e2d": 7658, "\u2581shared": 7659, "\u2581Most": 7660, "gle": 7661, "\u0131r": 7662, "\u2581\u092c\u0947": 7663, "onday": 7664, "\u2581\u09b8\u09c1": 7665, "\u2581Ev": 7666, "\u2581\u09a6\u09c1": 7667, "\u2581\u09b9\u09af\u09bc": 7668, "scale": 7669, "Av": 7670, "\u2581push": 7671, "\u2581Friday": 7672, "oche": 7673, "command": 7674, "\u2581goals": 7675, "OK": 7676, "\u2581collabor": 7677, "\u2581Cr": 7678, "\u2581sind": 7679, "\u0626\u06d2": 7680, "\u2581coffee": 7681, "background": 7682, "\u2581workers": 7683, "\u0997\u09c1\u09b2": 7684, "\u2581Every": 7685, "\u2581agreement": 7686, "\u2581Div": 7687, "\u30ea\u30fc": 7688, "\u2581parameter": 7689, "\u09b0\u09a3": 7690, "\u2581century": 7691, "IB": 7692, "\u2581Washington": 7693, "\u2581classes": 7694, "gebra": 7695, "\u00e7\u00f5es": 7696, "\u2581\u0938\u092c\u0938\u0947": 7697, "\u2581hop": 7698, "\u2581\u0911\u092b": 7699, "\u0942\u0932": 7700, "iced": 7701, "\u0b9f\u0bcd\u0b9f\u0bc1": 7702, "enter": 7703, "\u2581pages": 7704, "that": 7705, "\u0131nd": 7706, "\u2581Gold": 7707, "\u2581Leg": 7708, "\u2581susp": 7709, "\u2581expert": 7710, "Our": 7711, "\u2581Even": 7712, "\u2581tests": 7713, "\u2581Each": 7714, "\u2581budget": 7715, "ESS": 7716, "\u2581cookies": 7717, "\u2581Sun": 7718, "PR": 7719, "address": 7720, "Ass": 7721, "hab": 7722, "\u2581completed": 7723, "\u2581proof": 7724, "udo": 7725, "\uc5d0\uc11c": 7726, "\u2581\u0986\u09b8": 7727, "\u2581vs": 7728, "\u2581\u0447\u0430": 7729, "\u2581{\\": 7730, "\u2581si\u0119": 7731, "\u2581separate": 7732, "\u2581Ze": 7733, "\u0921\u0940": 7734, "\u2581announced": 7735, "late": 7736, "\u2581quarter": 7737, "\u2581empty": 7738, "\u043a\u0442": 7739, "\u09be\u09b0\u09be": 7740, "Tool": 7741, "IE": 7742, "\u2581\u0917\u0941": 7743, "\u2581\u306b": 7744, "\u2581flu": 7745, "\u0ca4\u0ccd\u0ca4": 7746, "\u2581AD": 7747, "\u2581\u0442\u0430\u043a": 7748, "\u2581\u0e44": 7749, "FL": 7750, "\u2581objects": 7751, "\u2581absor": 7752, "\u2581Educ": 7753, "alian": 7754, "\u092e\u0947": 7755, "\u2581['": 7756, "\u2581responsible": 7757, "\u2581elif": 7758, "\u2581prepared": 7759, "\u2581opportunities": 7760, "\u0d19\u0d4d\u0d19": 7761, "Min": 7762, "placeholder": 7763, "\u2581earth": 7764, "Main": 7765, "\u093f\u0915\u094d": 7766, "\u2581COVID": 7767, "\u2581Water": 7768, "\u3044\u307e\u3059": 7769, "\u09af\u09bc\u09be": 7770, "\u0ba8\u0bcd\u0ba4\u0bc1": 7771, "eme": 7772, "\u092a\u094d\u0930": 7773, "\u2581univers": 7774, "utt": 7775, "\u2581sv": 7776, "description": 7777, "exec": 7778, "\u2581served": 7779, "look": 7780, "\u0935\u0928": 7781, "aki": 7782, "Part": 7783, "\u2581werden": 7784, "\u2581spent": 7785, "\u099b\u09bf": 7786, "\u2581convers": 7787, "layout": 7788, "\u2581parties": 7789, "\u2581AN": 7790, "ische": 7791, "Font": 7792, "heet": 7793, "\u2581fav": 7794, "Each": 7795, "del": 7796, "\u2581chain": 7797, "\u2581relevant": 7798, "\u2581\u0ca8": 7799, "lay": 7800, "\u2581rent": 7801, "\u2581Jack": 7802, "\u2581Design": 7803, "\u2581bright": 7804, "\u2581shop": 7805, "\u2581thank": 7806, "\u2581fans": 7807, "\u2581moved": 7808, "\u0630\u0627": 7809, "awa": 7810, "\u2581\u0986\u09ae\u09bf": 7811, "\u2581vide": 7812, "\u0447\u0435\u0441\u043a\u0438": 7813, "nb": 7814, "\u0942\u0902": 7815, "\u2581Office": 7816, "\u2581\u043f\u0440\u0430": 7817, "egraphics": 7818, "includegraphics": 7819, "\u2581military": 7820, "\u2581advantage": 7821, "\u0930\u094d\u0925": 7822, "\u2581Fil": 7823, "\u2581theme": 7824, "\u2581anc": 7825, "\u091a\u094d\u092f\u093e": 7826, "\u2581tempor": 7827, "PC": 7828, "\u2581pictures": 7829, "\u2581French": 7830, "\u0e01\u0e32\u0e23": 7831, "\u043a\u043e\u0432": 7832, "olic": 7833, "\u2581atm": 7834, "\u2581generated": 7835, "\u2581phen": 7836, "obj": 7837, "rations": 7838, "\u2581hay": 7839, "\u2581\u00een": 7840, "\u2581PRO": 7841, "\u03b9\u03b1": 7842, "how": 7843, "itness": 7844, "\u2581fort": 7845, "\u2581settings": 7846, "PT": 7847, "\u2581kh\u00f4ng": 7848, "\u2581\u09ae\u09be": 7849, "\u2581Engine": 7850, "Nav": 7851, "tha": 7852, "\u2581tag": 7853, "\u2581alle": 7854, "\u2581Jes": 7855, "\u2581sto": 7856, "\u09be\u09a8\u09cd\u09a4": 7857, "\u2581communic": 7858, "\u2581gra": 7859, "\u2581medium": 7860, "dist": 7861, "ischen": 7862, "\u2581\u0909\u0924\u094d": 7863, "\u0646\u06d2": 7864, "\u09df\u09be\u09b0": 7865, "\u2581UN": 7866, "aran": 7867, "arc": 7868, "\u00e9l": 7869, "\u2581\u015f": 7870, "\u09b2\u09cb": 7871, "\u2581\u0c24": 7872, "\u00e7a": 7873, "Tab": 7874, "\u2581brain": 7875, "\u2581ven": 7876, "\u043f\u0440\u043e": 7877, "\u2581polic": 7878, "\u2581Project": 7879, "\u2581efforts": 7880, "\u2581\u2026": 7881, "\u2581\u00f6": 7882, "\u2581MA": 7883, "\u2581radio": 7884, "\u1ea7n": 7885, "\u2581Good": 7886, "\u0c82\u0ca6": 7887, "\u5c31\u662f": 7888, "\u2581billion": 7889, "\u2581voc\u00ea": 7890, "ioni": 7891, "isk": 7892, "\u00edn": 7893, "Width": 7894, "\u09b0\u09cd\u09a4": 7895, "iche": 7896, "\u2581\u062a\u0648": 7897, "olo": 7898, "\u0447\u043d\u043e": 7899, "\u09bf\u09b6": 7900, "\u2581Road": 7901, "double": 7902, "\u0441\u0442\u0432\u0435\u043d": 7903, "\u2581Fre": 7904, "\u2581district": 7905, "\u2581containing": 7906, "\u2581v\u1edbi": 7907, "\u0131m": 7908, "\u2581tur": 7909, "ferences": 7910, "\u1004\u103a": 7911, "pective": 7912, "\u2581colors": 7913, "\u2581todo": 7914, "\u2581\u043e\u0434": 7915, "\u0e23\u0e30": 7916, "\u2581\u041a\u0430": 7917, "\u2581Note": 7918, "hens": 7919, "\u2581department": 7920, "\u2581liquid": 7921, "\u2581editor": 7922, "\u2581cancer": 7923, "\u2581driver": 7924, "Answer": 7925, "uv": 7926, "annot": 7927, "\u09be\u0995\u09c7": 7928, "\u0644\u0627\u0645": 7929, "\u2581template": 7930, "alah": 7931, "\u2581sport": 7932, "\u2581federal": 7933, "\u2581insert": 7934, "\u2581Jer": 7935, "\u2581Hand": 7936, "\u2581interface": 7937, "\u0631\u0648": 7938, "\u2581arriv": 7939, "\u2581River": 7940, "\u2581Ins": 7941, "ZE": 7942, "\u2581\u0917\u093e": 7943, "\u0d30\u0d3f": 7944, "\u2581Mo": 7945, "\u2581trip": 7946, "\u2581Fore": 7947, "\u2581database": 7948, "Ret": 7949, "\u0c02\u0c1a": 7950, "intage": 7951, "\u2581SE": 7952, "\u2581kept": 7953, "epsilon": 7954, "\u2581Institute": 7955, "asure": 7956, "ipt": 7957, "\u2581schools": 7958, "\u2581Africa": 7959, "Tube": 7960, "\u306e\u3067": 7961, "\u3042\u308a": 7962, "\u2581gift": 7963, "abe": 7964, "\u2581families": 7965, "\u2581Sil": 7966, "road": 7967, "\u2581\u0110": 7968, "alls": 7969, "\u0cbf\u0ca6": 7970, "\u2581wrote": 7971, "\u2581garden": 7972, "\u2581\u0905\u0938": 7973, "\u2581teams": 7974, "\u2581],": 7975, "\u2581wish": 7976, "\u2581appreci": 7977, "Mr": 7978, "i\u00e9n": 7979, "crete": 7980, "\u0982\u09b2\u09be": 7981, "\u2581\u0928\u093f\u0930\u094d": 7982, "\u2581flowers": 7983, "\u0936\u093e": 7984, "aset": 7985, "white": 7986, "\u3044\u305f": 7987, "Module": 7988, "\u2581Found": 7989, "Query": 7990, "star": 7991, "\u2581File": 7992, "\u2581Windows": 7993, "\u2581mort": 7994, "\u2581\u0438\u043b\u0438": 7995, "Stream": 7996, "\u2581Grand": 7997, "\u2581ton": 7998, "\u2581fi": 7999, "\u0942\u0930\u094d": 8000, "\u2581bird": 8001, "hors": 8002, "acks": 8003, "\u2581Land": 8004, "\u2581OR": 8005, "\u2581End": 8006, "icit": 8007, "\u2581supported": 8008, "\u2581adding": 8009, "\u2581circum": 8010, "\u2581\u0938\u092e\u092f": 8011, "\u2581remov": 8012, "\u2581fashion": 8013, "\u2581\u0448": 8014, "\u2581\u03c4\u03b7": 8015, "Ut": 8016, "BL": 8017, "csv": 8018, "\u2581\u0b95\u0bc1": 8019, "\u2581importance": 8020, "allow": 8021, "\u0926\u093f": 8022, "\u2581\u017e": 8023, "\u30fc\u30c8": 8024, "\u2581ak": 8025, "\u2581\u0445\u043e": 8026, "abilities": 8027, "pu": 8028, "\u2581jug": 8029, "\u2581\u0648\u0627": 8030, "\u2581\u0627\u0644\u062d": 8031, "\u2581occup": 8032, "rian": 8033, "\u2581pra": 8034, "\u2581Although": 8035, "\u2581Bay": 8036, "\u2581\u043f\u0440\u0435\u0434": 8037, "\u2581category": 8038, "\u2581bil": 8039, "\u2581Color": 8040, "otimes": 8041, "\u094d\u091e": 8042, "eno": 8043, "\u0bbf\u0ba9": 8044, "\u0643\u0645": 8045, "\u2581\u00fcber": 8046, "\u2581resistance": 8047, "\u0e23\u0e32": 8048, "iga": 8049, "isms": 8050, "\u2581sist": 8051, "\u2581detail": 8052, "\u2581\u0915\u094d\u0935\u0947\u0936\u094d\u091a\u0928": 8053, "\u2581award": 8054, "auty": 8055, "\u0b9a\u0bcd\u0b9a": 8056, "care": 8057, "\u0c28\u0c41": 8058, "\u30f3\u30b0": 8059, "\u2581fest": 8060, "\u2581desc": 8061, "\u2581\u09ae\u09be\u09a8": 8062, "Down": 8063, "\u2581Arch": 8064, "\u2581Sum": 8065, "\u0d31\u0d4d": 8066, "\u2581rom": 8067, "\u2581\u041b": 8068, "uns": 8069, "}>": 8070, "task": 8071, "-(": 8072, "\u2581measures": 8073, "inate": 8074, "\u2581animals": 8075, "rees": 8076, "pected": 8077, "\u091c\u0947": 8078, "\u092c\u094d": 8079, "\u2581CD": 8080, "\u2581god": 8081, "\u2581explain": 8082, "\u2581\u06c1\u0648": 8083, "\u2581Equ": 8084, "\u2581\u0926\u094b\u0938\u094d\u0924\u094b\u0902": 8085, "\u2581Phil": 8086, "\u2581Franc": 8087, "\u2581bath": 8088, "\u2581\u0926\u0941": 8089, "anned": 8090, "\u2581pull": 8091, "oul": 8092, "\u0bb0\u0bbf": 8093, "\u2581san": 8094, "\u03c4\u03b1": 8095, "\u2581Association": 8096, "fs": 8097, "\u2581Great": 8098, "\u2581Long": 8099, "\u0e14\u0e49": 8100, "\u2581standing": 8101, "\u2581Chem": 8102, "\u2581steel": 8103, "\u2581protected": 8104, "\u2581competition": 8105, "\u2581alleg": 8106, "\u2581\u0915\u0930\u0924\u093e": 8107, "\u2581\u0917\u090f": 8108, "sey": 8109, "\u2581increases": 8110, "aron": 8111, "ifications": 8112, "\u2581pros": 8113, "service": 8114, "\u2581opening": 8115, "\u2581sitting": 8116, "antic": 8117, "\u2581peace": 8118, "\u2581\u0417": 8119, "gment": 8120, "TA": 8121, "\u2581economy": 8122, "\u2581owner": 8123, "\u3088\u3046": 8124, "\u2581veget": 8125, "\u2581favorite": 8126, "\u09a8\u09cd\u09a7": 8127, "\u2581advert": 8128, "%;": 8129, "\u0cbe\u0cb0": 8130, "\u2581Bas": 8131, "\u2581born": 8132, "\u0d1f\u0d4d\u0d1f": 8133, "\u2581flag": 8134, "lies": 8135, "\u2581Secret": 8136, "\u2581Church": 8137, "\u2581\u306f": 8138, "AME": 8139, "oted": 8140, "\u2581burn": 8141, "\u2581Rob": 8142, "\u2581efficient": 8143, "cup": 8144, "bel": 8145, "ancing": 8146, "home": 8147, "\u2581\u0926\u094d\u0935\u093e\u0930\u093e": 8148, "ervation": 8149, "\u2581wants": 8150, "\u2581AM": 8151, "\u091c\u0928": 8152, "\u2581\u0161": 8153, "\u2581architect": 8154, "\u2581manner": 8155, "\u2581furn": 8156, "cean": 8157, "\u00e0i": 8158, "\u2581finding": 8159, "\u2581vit": 8160, "frak": 8161, "cr": 8162, "\u090f\u0938": 8163, "\u2581\u0930\u0941": 8164, "othing": 8165, "atically": 8166, "imento": 8167, "\u0440\u0430\u043d": 8168, "mathfrak": 8169, "\u2581owners": 8170, "\u2581Committee": 8171, "\u2581operating": 8172, "gal": 8173, "\u2581Sunday": 8174, "\u2581raise": 8175, "\u2581pure": 8176, "ROM": 8177, "\u2581feeling": 8178, "\u2581ont": 8179, "\u2581plane": 8180, "orrow": 8181, "mem": 8182, "\u2581\u09a4\u09be\u09a6\u09c7\u09b0": 8183, "radi": 8184, "HTML": 8185, "\u0c15\u0c4d": 8186, "\u2581Australia": 8187, "\u2581synt": 8188, "aire": 8189, "\u2581buff": 8190, "\u2581ze": 8191, "\u2581dalam": 8192, "\u2581Tex": 8193, "options": 8194, "\u2581pero": 8195, "\u2581Object": 8196, "\u2581stars": 8197, "\u2581\u0445": 8198, "\u2581Array": 8199, "\u2581deli": 8200, "\u2581^": 8201, "\u2581civil": 8202, "\u2581ON": 8203, "\u092f\u094b\u0917": 8204, "\u2581ice": 8205, "\u2581s\u00e9": 8206, "\u2581clearly": 8207, "\u2581views": 8208, "SD": 8209, "sect": 8210, "amil": 8211, "................": 8212, "\u2581elim": 8213, "\u2581guide": 8214, "(\"/": 8215, "\u2581cash": 8216, "\u2581hotel": 8217, "bert": 8218, "\u2581defendant": 8219, "quare": 8220, "\u2581Facebook": 8221, "ulo": 8222, "ipping": 8223, "\u2581Saturday": 8224, "arian": 8225, "\u2581Christmas": 8226, "\u2581Miss": 8227, "rey": 8228, "\u2581perhaps": 8229, "\u2581Information": 8230, "\u2581Top": 8231, "aus": 8232, "Net": 8233, "cci\u00f3n": 8234, "ypes": 8235, "\u2581Development": 8236, "apat": 8237, "\u2581\u091c\u093f": 8238, "\u2581gel": 8239, "ensor": 8240, "izontal": 8241, "GB": 8242, "\u0d24\u0d4d\u0d24": 8243, "oli": 8244, "bet": 8245, "\u2581\u09ae\u09a7\u09cd\u09af": 8246, "alar": 8247, "xe": 8248, "\u2581stated": 8249, "\u3044\u3066": 8250, "\u2581\u0905\u092a\u0928\u0940": 8251, "\u0937\u094d": 8252, "\u2581CA": 8253, "\u2581formed": 8254, "\u2581prin": 8255, "\u2581female": 8256, "\u2581Anal": 8257, "\u2581psych": 8258, "\u0ca8\u0ccd\u0ca8": 8259, "\u2581disp": 8260, "\u2581depos": 8261, "\u2581epis": 8262, "\u2581esp": 8263, "\u2581\u0e2a": 8264, "isl": 8265, "SA": 8266, "\u2581bei": 8267, "\u2581church": 8268, "person": 8269, "Property": 8270, "\u01b0\u01a1": 8271, "figure": 8272, "\u0c3e\u0c32": 8273, "\u2581commit": 8274, "\u2581guid": 8275, "\u2581perm": 8276, "estic": 8277, "\u0947\u0902\u0917\u0947": 8278, "enda": 8279, "\u0926\u094d\u0930": 8280, "war": 8281, "\u2581Uh": 8282, "\u2581info": 8283, "agment": 8284, "izz": 8285, "\u2581\u0916\u093e": 8286, "\u2581\u09ac\u09b2\u09c7": 8287, "\u2581USA": 8288, "\u2581package": 8289, "\u2581forces": 8290, "Here": 8291, "igo": 8292, "\u09cd\u09a6": 8293, "\u2581bott": 8294, "\u2581\u09ad\u09be\u09b0\u09a4": 8295, "\u2581approximately": 8296, "\u2581Hot": 8297, "\u092e\u0941": 8298, "\u2581generation": 8299, "\u2581voice": 8300, "textwidth": 8301, "clusive": 8302, "aires": 8303, "\u2581formation": 8304, "tenance": 8305, "Ext": 8306, "\u2581Po": 8307, "\u2581profession": 8308, "\u2581panel": 8309, "door": 8310, "xml": 8311, "undo": 8312, "\u2581Kh": 8313, "\u2581introduced": 8314, "\u30fc\u30b9": 8315, "\u2581xml": 8316, "\u2581scene": 8317, "score": 8318, "\u2581challenge": 8319, "Panel": 8320, "\u2581waste": 8321, "vector": 8322, "\u2581returned": 8323, "\u2581partner": 8324, "\u2581artist": 8325, "\u2581rich": 8326, "\u2581relation": 8327, "\u00eatre": 8328, "ipped": 8329, "\u2581technical": 8330, "ifact": 8331, "\u09ac\u09be": 8332, "bind": 8333, "\u2581shirt": 8334, "delete": 8335, "\u2581tent": 8336, "\u2581gro": 8337, "\u00f3s": 8338, "\u2581north": 8339, "\u2581fan": 8340, "\u2581delivery": 8341, "\u0431\u0443": 8342, "\u2581conven": 8343, "float": 8344, "\u2581rank": 8345, "\u2581\u091a\u0932": 8346, "`,": 8347, "\u2581gal": 8348, "\u2581welcome": 8349, "\u0430\u043d": 8350, "\u2581kitchen": 8351, "\u2581relax": 8352, "iano": 8353, "\u092c\u0940": 8354, "\u2581prime": 8355, "aming": 8356, "\u2581highlight": 8357, "example": 8358, "\u043a\u0440\u0430": 8359, "\u1ec1u": 8360, "\u2581Cle": 8361, "\u0432\u0435\u0442": 8362, "\u2581shoot": 8363, "asket": 8364, "\u099b\u09c1": 8365, "\u2581\u0915\u093e\u0930\u094d\u092f": 8366, "\u0442\u0438\u0432": 8367, "\u0d2a\u0d4d\u0d2a": 8368, "\u2581token": 8369, "uda": 8370, "\u2581\u092a\u0941": 8371, "\u2581Lo": 8372, "\u2581json": 8373, "\u2581trong": 8374, "\u2581offered": 8375, "\u2581combination": 8376, "aha": 8377, "\u2581stret": 8378, "\u2581internet": 8379, "rar": 8380, "\u2581Services": 8381, "\u2581Under": 8382, "\u2581Stand": 8383, "organ": 8384, "\u2581identified": 8385, "\u2581belong": 8386, "\u2581\u0938\u0930\u0915\u093e\u0930": 8387, "\u2581prem": 8388, "standing": 8389, "\u2581died": 8390, "\u2581\u091f\u0940": 8391, "\u2581pad": 8392, "lee": 8393, "VS": 8394, "MM": 8395, "Window": 8396, "\u2581discussed": 8397, "\u2581external": 8398, "\u2581pr\u00e9": 8399, "\u2581\u0ab5": 8400, "\u2581rare": 8401, "\u064a\u0627": 8402, "\u2581techniques": 8403, "aro": 8404, "\u2581\u0924\u0940": 8405, "\u2581conver": 8406, "RL": 8407, "aca": 8408, "While": 8409, "Project": 8410, "\u2581grid": 8411, "\u2581album": 8412, "\u0442\u0435\u043b\u044c\u043d\u043e": 8413, "\u09a4\u09cd\u09a4": 8414, "\u0ba4\u0bbf": 8415, "\u2581cette": 8416, "\u2581algorithm": 8417, "\u2581ban": 8418, "\u2581FOR": 8419, "EventListener": 8420, "\u2581till": 8421, "\u2581dass": 8422, "\u2581unless": 8423, "cut": 8424, "\u2581Tur": 8425, "\u2581definitely": 8426, "\u2581slightly": 8427, "\u2581failed": 8428, "arks": 8429, "\u2581extract": 8430, "Instance": 8431, "\u2581happened": 8432, "Output": 8433, "\u2581measured": 8434, "np": 8435, "Header": 8436, "\u0d38\u0d4d": 8437, "\u2581Yes": 8438, "\u2581\u09b8\u09ae\u09cd\u09aa": 8439, "\u2581\u092a\u094d\u0930\u0924\u093f": 8440, "\u2581propos": 8441, "\u2581mist": 8442, "\u2581standards": 8443, "Bo": 8444, "\u2581trav": 8445, "\u2581Stat": 8446, "\u10d3\u10d0": 8447, "\u2581interval": 8448, "\u2581sustain": 8449, "\u2581False": 8450, "\u2581Alex": 8451, "\u2581reached": 8452, "\u2581\u0924\u094d\u092f\u093e": 8453, "\u2581certainly": 8454, "\\\"": 8455, "\u2581\u092c\u093f": 8456, "\u2581\u06a9\u0647": 8457, "\u062a\u06cc": 8458, "\u2581industrial": 8459, "\u2581Tom": 8460, "uis": 8461, "BU": 8462, "nergy": 8463, "imb": 8464, "dot": 8465, "msg": 8466, "\u2581akan": 8467, "\u2581Because": 8468, "\u0bb5\u0bbf": 8469, "\u2581expos": 8470, "\u2581Gen": 8471, "here": 8472, "admin": 8473, "arios": 8474, "\u2581Ba": 8475, "\u2581removed": 8476, "ampions": 8477, "sign": 8478, "\u2581debt": 8479, "\u2581\u092a\u094d\u0930\u093e": 8480, "ITY": 8481, "entry": 8482, "\u0131z": 8483, "\u2581Li": 8484, "\u2581argument": 8485, "\u2581\uac00": 8486, "\u2581processing": 8487, "\u2581III": 8488, "\u2581Bre": 8489, "idades": 8490, "\u09ad\u09be\u09ac\u09c7": 8491, "\u2581Monday": 8492, "Builder": 8493, "session": 8494, "\u2581EX": 8495, "\u09a5\u09c7": 8496, "[:": 8497, "odies": 8498, "\u2581concentration": 8499, "YPE": 8500, "ansion": 8501, "\u0441\u0441\u0438": 8502, "\"></": 8503, "n\u00e9": 8504, "\u2581coach": 8505, "Mat": 8506, "osh": 8507, "\u2581somew": 8508, "\"/>": 8509, "<?": 8510, "\u2581stories": 8511, "\u2581Two": 8512, "idas": 8513, "\u2581definition": 8514, "Player": 8515, "END": 8516, "erial": 8517, "\u2581bra": 8518, "\u2581nach": 8519, "\u2581equations": 8520, "\u2581magnetic": 8521, "\u0e37\u0e2d": 8522, "icks": 8523, "lets": 8524, "orter": 8525, "\u0d23\u0d4d": 8526, "\u0645\u0646": 8527, "\u2581\u098f\u09b0": 8528, "\u09a8\u09cd\u09a4\u09cd\u09b0": 8529, "\u09c7\u09b7": 8530, "ECT": 8531, "\u0935\u093e\u0930": 8532, "\u0e32\u0e21": 8533, "Top": 8534, "\u2581operator": 8535, "\u2581\u0b87\u0bb0\u0bc1": 8536, "FI": 8537, "\u2581boolean": 8538, "equation": 8539, "\u2581define": 8540, "\u2581plot": 8541, "itud": 8542, "arant": 8543, "xture": 8544, "grid": 8545, "ishes": 8546, "icated": 8547, "ws": 8548, "Phi": 8549, "\u2581\u0646\u06d2": 8550, "Ge": 8551, "\u0c17\u0c3e": 8552, "sche": 8553, "Max": 8554, "\u2581Chinese": 8555, "second": 8556, "SER": 8557, "lan": 8558, "\u2581spend": 8559, "CRE": 8560, "lab": 8561, "zed": 8562, "isse": 8563, "\u2581pag": 8564, "Off": 8565, "\u2581\u03b4": 8566, "\u2581>>": 8567, "\u2581sports": 8568, "Pol": 8569, "\u2581rise": 8570, "Cal": 8571, "range": 8572, "\u2581extremely": 8573, "Can": 8574, "\u2581leader": 8575, "\u2581Lou": 8576, "\u2581nas": 8577, "\u2581cup": 8578, "\u2581nuest": 8579, "Num": 8580, "\u2581\u043b\u0435": 8581, "\u2581YouTube": 8582, "\u2581thread": 8583, "ensional": 8584, "\u2581finished": 8585, "\u2581Life": 8586, "iliar": 8587, "\u2581purs": 8588, "ungs": 8589, "\u0cbe\u0c97": 8590, "\u3044\u3046": 8591, "atan": 8592, "irmed": 8593, "acket": 8594, "\u2581prove": 8595, "tabular": 8596, "Row": 8597, "arp": 8598, "\u2581Bill": 8599, "\u2581Create": 8600, "\u2581noted": 8601, "\u0440\u0442": 8602, "\u2581iron": 8603, "elles": 8604, "\u2581voor": 8605, "mult": 8606, "control": 8607, "ilib": 8608, "\u2581disapp": 8609, "\u2581domain": 8610, "\u2581\u0644\u0644": 8611, "\"\"": 8612, "\u2581danger": 8613, "\u2581tan": 8614, "Length": 8615, "\u2581purposes": 8616, "\u2581deriv": 8617, "\u2581Lord": 8618, "orig": 8619, "\u0647\u0645": 8620, "apa": 8621, "\u2581\u0936\u0941\u0930": 8622, "\u2581Okay": 8623, "\u2581Mont": 8624, "\u2581\u0b9a\u0bc6\u0baf": 8625, "\u2581\u092a\u0940": 8626, "\u2581mol": 8627, "gent": 8628, "Container": 8629, "dep": 8630, "\u2581Roy": 8631, "\u2581powerful": 8632, "\u2581shift": 8633, "\u2581businesses": 8634, "styles": 8635, "\u09be\u09a4\u09cd\u09b0": 8636, "\u2581{}": 8637, "bour": 8638, "login": 8639, "HER": 8640, "printf": 8641, "\u2581TR": 8642, "\u2581ment": 8643, "\u09cb\u09b0": 8644, "\u2581Max": 8645, "\u2581environmental": 8646, "\u2581\u0924\u0930\u0939": 8647, "\u2581\u06c1\u06cc\u06ba": 8648, "\u2581\u0906\u092a\u0915\u0947": 8649, "ijn": 8650, "\u2581cards": 8651, "\u2581brief": 8652, "Pass": 8653, "\u0bb5\u0bc1": 8654, "\u0446\u0438\u044f": 8655, "\u2581\u09b8\u09b0": 8656, "\u2581insurance": 8657, "drop": 8658, "\u2581circuit": 8659, "\u2581tiss": 8660, "\u2581\u0995\u09bf\u09a8\u09cd\u09a4": 8661, "\u09bf\u09ac": 8662, "\u2581tum": 8663, "\u2581tub": 8664, "\u2581chi": 8665, "\u2581todos": 8666, "\u2581categ": 8667, "\u2581bis": 8668, "yan": 8669, "oration": 8670, "\u2581\u092b\u093f\u0930": 8671, "\u2581college": 8672, "\u09cd\u099e": 8673, "abet": 8674, "\u2581raised": 8675, "\u0923\u094d\u092f\u093e": 8676, "\u09c0\u09df": 8677, "\u2581opened": 8678, "\u2581Tem": 8679, "\u09c1\u09b7": 8680, "rency": 8681, "\u2581\u0415": 8682, "\u2581learned": 8683, "appy": 8684, "\u2581\u0645\u062d": 8685, "AA": 8686, "\u2581notes": 8687, "\u2581implementation": 8688, "\u2581Build": 8689, "cdots": 8690, "mazon": 8691, "\u2581\u091d": 8692, "\u2581hai": 8693, "\u0bc8\u0b95": 8694, "\u2581\u092c\u093e\u0930\u0947": 8695, "Ke": 8696, "subset": 8697, "\u2581examples": 8698, "\u2581discussion": 8699, "\u2581cha": 8700, "\u2581identify": 8701, "\u01b0\u1edb": 8702, "ometric": 8703, "\u2581Den": 8704, "\u2581husband": 8705, "\u2581rub": 8706, "password": 8707, "\u2581Report": 8708, "\u2581daughter": 8709, "\u2581south": 8710, "\u2581PM": 8711, "\u2581Mary": 8712, "\u2581strugg": 8713, "oco": 8714, "\u2581Spring": 8715, "\u2581\u0b95\u0bca": 8716, "console": 8717, "\u2581(\\": 8718, "\u2581Vector": 8719, "Ver": 8720, "lines": 8721, "\u2581easier": 8722, "\u0e47\u0e19": 8723, "Dec": 8724, "angular": 8725, "\u2581agent": 8726, "\u2581egg": 8727, "Base": 8728, "\u2581generate": 8729, "i\u00f3": 8730, "\u2581gone": 8731, "\u2581Many": 8732, "\u2581wire": 8733, "osite": 8734, "\u2581records": 8735, "\u2581Vir": 8736, "\u2581opinion": 8737, "\u2581lang": 8738, "\u2581Code": 8739, "\u0131\u015f": 8740, "\u0441\u0442\u0430\u0432": 8741, "\u0936\u0940": 8742, "Column": 8743, "\u2581depth": 8744, "\u2581\u0939\u0941\u0906": 8745, "strument": 8746, "\u2581proport": 8747, "\u2581agree": 8748, "\u09ae\u09c7": 8749, "\u2581tun": 8750, "\u0449\u0430": 8751, "\u099a\u09cd\u099b\u09c7": 8752, "\u2581ao": 8753, "\u2581Show": 8754, "Options": 8755, "\u2581Bet": 8756, "\u2581spin": 8757, "icity": 8758, "ston": 8759, "\u2581\u0915\u0939": 8760, "\u2581whom": 8761, "Rem": 8762, "iture": 8763, "poss": 8764, "\u0aa8\u0ac0": 8765, "\u2581\u062c\u0648": 8766, "ango": 8767, "\u2581dram": 8768, "enta": 8769, "\u2581exchange": 8770, "\u2581vacc": 8771, "\u2581Bu": 8772, "\u2581\u0917\u094d\u0930": 8773, "\u2581exercise": 8774, "\u2581funds": 8775, "pie": 8776, "site": 8777, "\u2581\u092a\u0922\u093c": 8778, "\u2581Social": 8779, "inde": 8780, "\u2581profile": 8781, "Current": 8782, "\u093e\u0908": 8783, "\u2581runs": 8784, "\u2581wear": 8785, ".:": 8786, "\u2581claims": 8787, "Frame": 8788, "\u2581Pan": 8789, "\u2581peu": 8790, "BO": 8791, "\u2581significantly": 8792, "osing": 8793, "\u2581\u0935\u093f\u0936": 8794, "icious": 8795, "\u2581\u041d\u0430": 8796, "\u2581toward": 8797, "\u2581differences": 8798, "\u2581Year": 8799, "\u2581failure": 8800, "omic": 8801, "Game": 8802, "\u03c4\u03bf": 8803, "(_": 8804, "\u2581Pet": 8805, "\u2581sac": 8806, "\u2581::": 8807, "\u2581fer": 8808, "GE": 8809, "\u03c1\u03bf": 8810, "\u2581Bur": 8811, "\u2581developing": 8812, "\u2581Management": 8813, "\u2581\u0909\u0928\u094d\u0939\u094b\u0902\u0928\u0947": 8814, "\u00edas": 8815, "\u2581suit": 8816, "\u2581Society": 8817, "graph": 8818, "urban": 8819, "\u2581prev": 8820, "\u09aa\u09b0": 8821, "tml": 8822, "_\\": 8823, "Sw": 8824, "\u2581nuclear": 8825, "################": 8826, "\u2581traffic": 8827, "\u2581\u0ab9": 8828, "\u0b99\u0bcd\u0b95\u0bb3\u0bcd": 8829, "reek": 8830, "igger": 8831, "\u2581conflic": 8832, "\u2581Gal": 8833, "\u2581\u1260": 8834, "\u2581attend": 8835, "hetic": 8836, "Script": 8837, "\u3067\u304d": 8838, "\u2581logo": 8839, "\u094b\u0930": 8840, "\u0932\u094d\u092f\u093e": 8841, "('/": 8842, "Height": 8843, "\u2581guess": 8844, "\u064a\u0645": 8845, "\u2581adopt": 8846, "\u2581Read": 8847, "\u2581facilities": 8848, "cht": 8849, "\u2581\u0627\u06cc\u0646": 8850, "scrib": 8851, "(`": 8852, "\u2581Director": 8853, "\u53ef\u80fd": 8854, "pir": 8855, "\u0c97\u0cb3": 8856, "isis": 8857, "\u2581river": 8858, "\u2581regarding": 8859, "\u2581Mass": 8860, "\u0ccd\u0cb0": 8861, "\u2581majority": 8862, "\u2581thanks": 8863, "\u2581brown": 8864, "\u2581\u0905\u0917\u0930": 8865, "langle": 8866, "rypt": 8867, "aje": 8868, "\u2581\u0938\u0915\u0924\u093e": 8869, "\u2581Central": 8870, "plete": 8871, "resents": 8872, "%%%%": 8873, "\u2581NE": 8874, "ius": 8875, "ometry": 8876, "\u0441\u043b\u0438": 8877, "\u2581wid": 8878, "\u2581\u0c30": 8879, "\u2581wie": 8880, "\u2581cycle": 8881, "esso": 8882, "\u2581plaintiff": 8883, "\u2581journal": 8884, "\u2581\u0928\u093e\u092e": 8885, "\u2581AR": 8886, "\u2581\u09a5\u09be\u0995": 8887, "\u2581\u3068": 8888, "method": 8889, "\u2581Best": 8890, "Comp": 8891, "\u064a\u0644": 8892, "\u09c0\u09a8": 8893, "\u2581fundament": 8894, "inet": 8895, "ums": 8896, "\u2581procedure": 8897, "\u2581Pub": 8898, "\u2581\u0d0e": 8899, "\u0921\u093c\u0940": 8900, "\u2581plastic": 8901, "cons": 8902, "\u2581\u0446": 8903, "\u2581communities": 8904, "Server": 8905, "\u2581continuous": 8906, "\u2581helped": 8907, "\u2581gru": 8908, "\u2581\u0b85\u0bb5": 8909, "hemat": 8910, "\u2581regist": 8911, "\u2581launch": 8912, "\u2581align": 8913, ")),": 8914, "allery": 8915, "black": 8916, "\u2581\u12a5": 8917, "\u2581password": 8918, "ativ": 8919, "\u2581\u0437\u043d\u0430": 8920, "\u2581Mil": 8921, "\u2581Why": 8922, "mos": 8923, "\u2581atmosph": 8924, "DS": 8925, "ifer": 8926, "\u2581Union": 8927, "inu": 8928, "doc": 8929, "\u2581reli": 8930, "uma": 8931, "\u2581respond": 8932, "\u2581\u09b8\u09ac": 8933, "\u2581Nov": 8934, "\u2581solo": 8935, "'))": 8936, "\u2581male": 8937, "lat": 8938, "\u6ca1\u6709": 8939, "\u2581sympt": 8940, "=\"/": 8941, "\u0436\u0435\u043d": 8942, "\u2581Smith": 8943, "\u00e2y": 8944, "\u2581According": 8945, "going": 8946, "\u2581\u09aa\u09c2": 8947, "\u2581script": 8948, "\u2581han": 8949, "icip": 8950, "hm": 8951, "\u2581\u0424": 8952, "\u043d\u043e\u043c": 8953, "ACK": 8954, "Enter": 8955, "ifically": 8956, "it\u00e0": 8957, "\u2581\u043a\u043e\u043c": 8958, "vet": 8959, "only": 8960, "\u2581Wil": 8961, "\u2581mur": 8962, "\u0942\u0938": 8963, "\u2581Flor": 8964, "tegr": 8965, "\u2581William": 8966, "faces": 8967, "\u2581comments": 8968, "\u2581\u09ac\u09be\u0982\u09b2\u09be": 8969, "fast": 8970, "king": 8971, "\u2581Michael": 8972, "\u09bf\u09ae": 8973, "\u2581solve": 8974, "\u2581resist": 8975, "\u0432\u0443": 8976, "\u2581expressed": 8977, "\u3053\u306e": 8978, "inen": 8979, "Search": 8980, "eres": 8981, "edit": 8982, "\u2581xmlns": 8983, "zie": 8984, "Update": 8985, "\u2581pada": 8986, "\u0445\u043e\u0434\u0438": 8987, "\u2581speak": 8988, "$(": 8989, "\u2581onto": 8990, "\u2581challenges": 8991, "words": 8992, "Don": 8993, "\u2581\u0995\u09c7": 8994, "\u01b0\u01a1ng": 8995, "cout": 8996, "\u0bb0\u0bcd\u0b95\u0bb3\u0bcd": 8997, "ettings": 8998, "Port": 8999, "edy": 9000, "ributes": 9001, "\u2581whatever": 9002, "edge": 9003, "Work": 9004, "\u0bbe\u0baf": 9005, "\u2581printf": 9006, "otype": 9007, "Last": 9008, "\u2581finish": 9009, "istan": 9010, "\u2581correl": 9011, "\u2581\u0d24": 9012, "Method": 9013, "\u2581latter": 9014, "eto": 9015, "icture": 9016, "\u2581mission": 9017, "\u2581\u043a\u043e\u0442\u043e\u0440\u044b": 9018, "\u2581ren": 9019, "Book": 9020, "\u2581administr": 9021, "inh": 9022, "\u2581curve": 9023, "\u0437\u043e\u0432\u0430": 9024, "\u2581leads": 9025, "addEventListener": 9026, "\u2581assume": 9027, "Sim": 9028, "\u2581Nat": 9029, "\u30bf\u30fc": 9030, "umi": 9031, "\u2581obj": 9032, "\u2581syn": 9033, "\u2581affected": 9034, "\u2581wir": 9035, "=(": 9036, "save": 9037, "Version": 9038, "\u2581eat": 9039, "isch": 9040, "\u2581rac": 9041, "phas": 9042, "\u2581truth": 9043, "\u2581ul": 9044, "\u30b9\u30c8": 9045, "iten": 9046, ".</": 9047, "\u2581chair": 9048, "\u2581Tor": 9049, "\u2581treated": 9050, "ustomer": 9051, "\u2581lif": 9052, "\u2581IT": 9053, "plt": 9054, "\u2581Club": 9055, "omin": 9056, "Left": 9057, "\u2581\u0932\u0917": 9058, "\u2581origin": 9059, "\u2581\u3066": 9060, "\u2581goods": 9061, "\u2581nombre": 9062, "\u2581itu": 9063, "\u2581Game": 9064, "\u2581Organ": 9065, "\u2581\u091f\u0942": 9066, "Order": 9067, "\u0c1f\u0c4d": 9068, "\u2581mental": 9069, "riz": 9070, "ANT": 9071, "\u0440\u0456": 9072, "cropped": 9073, "mode": 9074, "\u2581indu": 9075, "\u2581fant": 9076, "\u2581Further": 9077, "\u2581Lic": 9078, "\u2581Paris": 9079, "\u2581ec": 9080, "\u2581catal": 9081, "abs": 9082, "\u0e35\u0e22": 9083, "Cell": 9084, "\u2581gran": 9085, "gency": 9086, "\u0441\u043a": 9087, "tag": 9088, "\u2581\u0440\u0430\u0431\u043e": 9089, "\u2581Camp": 9090, "\u2581habit": 9091, "\u2581doctor": 9092, "\u2581seconds": 9093, "\u2581\u0915\u0948": 9094, "\u2581reduction": 9095, "oga": 9096, "\u2581pieces": 9097, "\u01b0\u1eddng": 9098, "ahr": 9099, "\u2581Find": 9100, "\u2581df": 9101, "\u2581m\u00e1": 9102, "\u2581inputs": 9103, "\u2581simpl": 9104, "\u2581forma": 9105, "\u2581advice": 9106, "pert": 9107, "\u2581structures": 9108, "ursday": 9109, "\u2581\u3092": 9110, "pling": 9111, "\u062a\u0647": 9112, "\u2581resulting": 9113, "\u00fan": 9114, "\u2581German": 9115, "\u2581route": 9116, "\u2581\u0938\u093e\u0932": 9117, "ogram": 9118, "\u2581\u0985\u09ad": 9119, "\u2581\u10db": 9120, "\u044f\u0442": 9121, "\u2581mai": 9122, "\u2581PL": 9123, "alo": 9124, "\u0920\u0940\u0915": 9125, "\u2581\u0939\u094b\u0924\u0940": 9126, "ocks": 9127, "\u2581confirm": 9128, "uesday": 9129, "\u2581fabric": 9130, "ructions": 9131, "\u00bb.": 9132, "ictionary": 9133, "\u0ac1\u0a82": 9134, "UD": 9135, "\u2581Ext": 9136, "\u2581evening": 9137, "\u0930\u094d\u0935": 9138, "\u2581calls": 9139, "\u2581\u0932\u0947\u0915\u0930": 9140, "\u2581spl": 9141, "\u2581George": 9142, "iri": 9143, "\u2581virtual": 9144, "\u2581Republic": 9145, "Command": 9146, "\u2581\ub300": 9147, "\u2581wedding": 9148, "\u2581votre": 9149, "\u2581relatively": 9150, "icio": 9151, "\u0db1\u0dca": 9152, "\u2581nue": 9153, "esch": 9154, "\u2581specified": 9155, "\u2581dream": 9156, "\u2581Et": 9157, "\u0923\u093f": 9158, "\u2581Vis": 9159, "\u2581throws": 9160, "ogy": 9161, "\u2581Oper": 9162, "\u2581EN": 9163, "nce": 9164, "\u09be\u09a6\u09c7\u09b0": 9165, "\u2581vez": 9166, "ITEM": 9167, "\u2581noise": 9168, "\u06cc\u0633": 9169, "\u2581orient": 9170, "\u2581neighbor": 9171, "\u2581cout": 9172, "\u2581module": 9173, "\u2581sides": 9174, "Art": 9175, "\u2581attribute": 9176, "\u2581appeared": 9177, "Child": 9178, "GL": 9179, "\u2581restaurant": 9180, "non": 9181, "\u2581\uc544": 9182, "uni": 9183, "\u2581Prov": 9184, "POST": 9185, "\u2581Journal": 9186, "\u2581Start": 9187, "subsection": 9188, "\u2581\u0e19\u0e30": 9189, "\u2581---": 9190, "\u2581Supp": 9191, "troop": 9192, "\u092c\u0902\u0927": 9193, "rence": 9194, "\u2581excess": 9195, "\u2581\u0920\u0940\u0915": 9196, "amer": 9197, "\u2581\u0436\u0438": 9198, "\u2581changing": 9199, "\u2581guard": 9200, "\u2581\u0bae\u0bbe": 9201, "\u2581\u0639\u0646": 9202, "\u2581Russian": 9203, "\u2581driving": 9204, "\u2581persons": 9205, "\u2581PR": 9206, "files": 9207, "These": 9208, "('.": 9209, "\u0e43\u0e19": 9210, "\u0435\u0439": 9211, "\u2581jump": 9212, "edom": 9213, "\u0432\u0456": 9214, "mal": 9215, "\u2581\u043a\u0443": 9216, "\u0947\u0936\u0928": 9217, ":]": 9218, "\u0627\u0632": 9219, "\u2581\u092d\u093e\u0930\u0924": 9220, "utter": 9221, ".$": 9222, "Position": 9223, "\u2581stim": 9224, "\u2581couldn": 9225, "\u2581cultural": 9226, "\u2581\u03ba\u03b1\u03b9": 9227, "\u2581interior": 9228, "\u0995\u09cd\u09b0": 9229, "\u09b8\u09c7": 9230, "Dr": 9231, "\u2581conference": 9232, "Change": 9233, "\u09cd\u099c": 9234, "}$-": 9235, "aa": 9236, "\u0c28\u0c4d\u0c28": 9237, "real": 9238, "\u2581extended": 9239, "owa": 9240, "kar": 9241, "\u2581Acad": 9242, "\u2581Hen": 9243, "nament": 9244, "\u2581distinct": 9245, "\u0d1a\u0d4d\u0d1a": 9246, "\u2581emot": 9247, "\u2581\u09a8\u09c7": 9248, "\u2581delay": 9249, "\u2581Type": 9250, "\u2581\u0915\u094d\u0937": 9251, "\u2581District": 9252, "\u2581ej": 9253, "\u2581velocity": 9254, "\u2581calculated": 9255, "Body": 9256, "eni": 9257, "\u2581holds": 9258, "Hello": 9259, "fection": 9260, "\u2581\u09a8\u09be\u09ae": 9261, "\u2581strain": 9262, "\u2581echo": 9263, "Red": 9264, "\u2581Microsoft": 9265, "\u305d\u306e": 9266, "}/": 9267, "\u2581\u0436\u0435": 9268, "\u2581Ir": 9269, "\u062f\u0631": 9270, "\u2581motiv": 9271, "Next": 9272, "\u2581suitable": 9273, "\u2581Play": 9274, "sql": 9275, "\u00eame": 9276, "False": 9277, "\u2581puede": 9278, "\u2581calculate": 9279, "\u2581substit": 9280, "\u0e49\u0e19": 9281, "\u2581represents": 9282, "\u2581\u0995\u09bf\u09a8\u09cd\u09a4\u09c1": 9283, "\u2581elev": 9284, "\u2581\u0995\u09b0\u09c7\u09a8": 9285, "\u2581efficiency": 9286, "\u09c1\u09a6\u09cd\u09a7": 9287, "\u17d2\u179a": 9288, "imary": 9289, "\u2581Star": 9290, "\u2581img": 9291, "\u2581combined": 9292, "\u2581Sy": 9293, "\u0d23\u0d4d\u0d1f": 9294, "\u2581soil": 9295, "\u2581\"-": 9296, "\u0915\u094d\u0924\u093f": 9297, "\u2581comme": 9298, "\u2581API": 9299, "cohol": 9300, "assets": 9301, "\u2581alternative": 9302, "\u2581faith": 9303, "\u2581\u092c\u091a\u094d\u091a": 9304, "anes": 9305, "\u2581therap": 9306, "cat": 9307, "\u2581perman": 9308, "xd": 9309, "\u2581req": 9310, "\u2581delete": 9311, "\u2581loved": 9312, "Reference": 9313, "\u2581resolution": 9314, "\u2581vor": 9315, "oral": 9316, "\u2581centre": 9317, "\u0437\u043d\u0430": 9318, "\u2581rect": 9319, "Hz": 9320, "\u2581\u0e08": 9321, "Gr": 9322, "\u2581wird": 9323, "\u2581mand": 9324, "bag": 9325, "\u2581\ubcf4": 9326, "\u2581Frank": 9327, "indi": 9328, "\u2581chief": 9329, "\u0902\u0924\u094d\u0930\u0940": 9330, "\u2581gene": 9331, "!\"": 9332, "\u2581seeing": 9333, "\u2581\u00e9s": 9334, "unately": 9335, "None": 9336, "\u2581diet": 9337, "\u2581journey": 9338, "burg": 9339, "step": 9340, "hot": 9341, "eless": 9342, "auth": 9343, "\u01b0\u1eddi": 9344, "\u0c02\u0c26\u0c3f": 9345, "pay": 9346, "clear": 9347, "\u2581Mount": 9348, "antics": 9349, "\u2581estate": 9350, "\u2581vertical": 9351, "\u2581Review": 9352, "CN": 9353, "\u2581Are": 9354, "\u2581circumst": 9355, "\u2581Der": 9356, "\u0927\u093e\u0930": 9357, "\u2581inde": 9358, "\u2581acad": 9359, "hu": 9360, "\u2581Indust": 9361, "\u0633\u0645": 9362, "\u2581equivalent": 9363, "Entity": 9364, "acional": 9365, "Please": 9366, "\u2581\u092e\u094c": 9367, "ajo": 9368, "\u2581enable": 9369, "\u2581doubt": 9370, "\u2581cars": 9371, "bro": 9372, "LECT": 9373, "\u1ea3i": 9374, "\u2581survey": 9375, "\u0627\u0631\u06cc": 9376, "?\u201d": 9377, "\u2581walking": 9378, "UTTON": 9379, "\u2581sweet": 9380, "\u2581portion": 9381, "\u2581\u043e\u0431\u0440\u0430": 9382, "\u2581coast": 9383, "\u2581Mel": 9384, "\u2581gather": 9385, "\u0917\u094d": 9386, "nesday": 9387, "\u2581params": 9388, "\u2581\u0b95\u0bbe": 9389, "Const": 9390, "roph": 9391, "Attribute": 9392, "\u2581\u0cb9": 9393, "\u2581\u0997\u09cd\u09b0": 9394, "\u2581tasks": 9395, "\u09c0\u09ac": 9396, "insert": 9397, "\u0921\u093c\u093e": 9398, "\u2581\u063a": 9399, "\u091a\u093e\u0930": 9400, "Some": 9401, "PH": 9402, "\u0430\u043a": 9403, "annels": 9404, "\u2581Germany": 9405, "\u2581uniform": 9406, "\u2581liv": 9407, "\u2581fif": 9408, "\u306b\u306a": 9409, "render": 9410, "imm": 9411, "\u2581\u0928\u0902\u092c\u0930": 9412, "\u2581documents": 9413, "]:": 9414, "Eng": 9415, "\u2581n\u00fa": 9416, "AppCompat": 9417, "overy": 9418, "\u0d30\u0d4d\u200d": 9419, "\u2581\uc2dc": 9420, "\u2581\u0caa": 9421, "\u2581\u0a95\u0ab0": 9422, "~\\": 9423, "\u2581NO": 9424, "\u0441\u043a\u043e\u0439": 9425, "\u2581Education": 9426, "\u2581library": 9427, "\u2581entr": 9428, "\u2581Dig": 9429, "pub": 9430, "\u2581\u0985\u09a8\u09c1": 9431, "\u2581People": 9432, "\u00edm": 9433, "\u2581react": 9434, "Home": 9435, "wan": 9436, "\u090f\u0902": 9437, "dt": 9438, "\u2581happens": 9439, "\u2581agricult": 9440, "\u2581$-": 9441, "support": 9442, "\u091f\u093e": 9443, "icing": 9444, "\u2581\u043b\u044e": 9445, "\u2581n\u00e9": 9446, "\u2581AS": 9447, "\u2581\u0939\u0930": 9448, "amless": 9449, "\u3067\u306f": 9450, "\u2581''": 9451, "\u2581\uc790": 9452, "aan": 9453, "\u2581causes": 9454, "icago": 9455, "\u2581listed": 9456, "\u0d3f\u0d2f": 9457, "application": 9458, "\u2581rail": 9459, "\u2581estimated": 9460, "=>": 9461, "fix": 9462, "\u2581Control": 9463, "iana": 9464, "\u2581subsequ": 9465, "\u2581Image": 9466, "night": 9467, "\u2581compr": 9468, "\u062d\u062f": 9469, "\u2581employee": 9470, "icken": 9471, "ORE": 9472, "Details": 9473, "More": 9474, "\u2581\u0627\u0644\u062c": 9475, "\u00eds": 9476, "\u2581\u0915\u0908": 9477, "arse": 9478, "\u2581fruit": 9479, "utely": 9480, "\u2581\u09ae\u09a7\u09cd\u09af\u09c7": 9481, "imiento": 9482, "\u2581Model": 9483, "aken": 9484, "\u2581axis": 9485, "\u2581\u0645\u0648": 9486, "oni": 9487, "\u2581Person": 9488, "\u2581extent": 9489, "cipl": 9490, "este": 9491, "\u017ce": 9492, "\u2581\u0645\u0634": 9493, "\u043d\u043e\u0435": 9494, "\u2581waiting": 9495, "\u2581reality": 9496, "\u2581\u0ab0": 9497, "\u0d41\u0d15": 9498, "\u043c\u0435\u0440": 9499, "\u2581Island": 9500, "Level": 9501, "riage": 9502, "blue": 9503, "\u2581Rad": 9504, "\u2581sab": 9505, "frast": 9506, "\u2581characteristics": 9507, "icol": 9508, "\u2581Thomas": 9509, "adores": 9510, "ede": 9511, "MR": 9512, "\u2581Internet": 9513, "\u2581pink": 9514, "\u2581\u09a6\u09c7\u09b6": 9515, "\u2581Big": 9516, "\u2581tel": 9517, "\u09be\u0997": 9518, "\u2581Hall": 9519, "Lo": 9520, "Cor": 9521, "\u5982\u679c": 9522, "\u0ba9\u0bcd\u0ba9": 9523, "life": 9524, "%.": 9525, "\u2581Twitter": 9526, "\u2581incorpor": 9527, "}`": 9528, "\u2581During": 9529, "\u2581contrast": 9530, "\u2581Christian": 9531, "\u0e25\u0e30": 9532, "\u2581Key": 9533, "iation": 9534, "\u2581chart": 9535, "ovie": 9536, "\u2581bat": 9537, "\u2581lu": 9538, "\u2581Texas": 9539, "\u2581wur": 9540, "Preview": 9541, "\u2581leaving": 9542, "\u2581\u0985\u09b0\u09cd": 9543, "erd": 9544, "EST": 9545, "\u2581afford": 9546, "Dir": 9547, "uli": 9548, "\u2581\u0627\u0644\u0644\u0647": 9549, "\u2581senior": 9550, "\u2581salt": 9551, "\u00e4h": 9552, "\u2581interaction": 9553, "\u2581\uae30": 9554, "\u2581\u0aae": 9555, "\u2581milk": 9556, "\u2581citiz": 9557, "\u2581dei": 9558, "\u2581p\u0159": 9559, "\u2581\"/": 9560, "liche": 9561, "\u2581flower": 9562, "\u2581sua": 9563, "Close": 9564, "\u2581girls": 9565, "acle": 9566, "\u2581Its": 9567, "\u2581nhi": 9568, "\u2581jobs": 9569, "\u2581f\u00f6r": 9570, "]$": 9571, "\u0435\u043a": 9572, "\u2581\u05d5": 9573, "\u2581Android": 9574, "CI": 9575, "\u2581regions": 9576, "\u2581tou": 9577, "\u2581creative": 9578, "bb": 9579, "irection": 9580, "\u2581dit": 9581, "\u09b9\u09be\u09b0": 9582, "adr": 9583, "\u2581secure": 9584, "Mar": 9585, "\u2581SH": 9586, "ebug": 9587, "inar": 9588, ">();": 9589, "equals": 9590, "\u0627\u0641": 9591, "\u2581\u092a\u0947": 9592, "\u2581Amazon": 9593, "\u2581\u09b2\u09be": 9594, "\u2581Blue": 9595, "argo": 9596, "jar": 9597, "\u044e\u0449\u0438": 9598, "agg": 9599, "rium": 9600, "MOD": 9601, "\u2581\u0627\u0644\u0646": 9602, ".*": 9603, "Address": 9604, "\u2581\u0909\u0928\u0915\u0947": 9605, "\u10d0\u10e0": 9606, "stack": 9607, "\u2581\u0baa\u0bcb": 9608, "Load": 9609, "bot": 9610, "\u2581muy": 9611, "\u2581\u0434\u0440\u0443": 9612, "\u2581Fire": 9613, "\u2581apparent": 9614, "\u2581king": 9615, "\u2581ion": 9616, "\u2581Free": 9617, "bug": 9618, "grade": 9619, "\u2581Plan": 9620, "ahan": 9621, "\u2581Box": 9622, "\u2581\u0905\u091a\u094d\u091b": 9623, "\u2581football": 9624, "\u2581\u0b85\u0ba4": 9625, "\u2581maintenance": 9626, "\u09be\u09a7": 9627, "\u2581inner": 9628, "Provider": 9629, "\u2581Lake": 9630, "certain": 9631, "elcome": 9632, "SRP": 9633, "\u2581AL": 9634, "\u2581administration": 9635, "make": 9636, "\u2581composition": 9637, "ims": 9638, "\u2581famous": 9639, "Total": 9640, "\u2581minute": 9641, "\u2581Fund": 9642, "ski": 9643, "\u2581exceed": 9644, "\u2581\u0627\u0644\u0641": 9645, "udd": 9646, "Null": 9647, "\u2581\u09a4\u09be\u09b0\u09be": 9648, "vez": 9649, "\u2581comfortable": 9650, "\u2581sono": 9651, "\u2581\u0440\u0443": 9652, "\u00e9ri": 9653, "\u2581League": 9654, "\u2581meant": 9655, "\u2581dispos": 9656, "\u2581Return": 9657, "IGHT": 9658, "\u09c0\u09af\u09bc": 9659, "igan": 9660, "\u2581Number": 9661, "\u2581Author": 9662, "(\".": 9663, "\u2581\u09b9\u09df\u09c7\u099b\u09c7": 9664, "\u2581shap": 9665, "\u2581nit": 9666, "\u2581fo": 9667, "\u2581properly": 9668, "blem": 9669, ")))": 9670, "yo": 9671, "\u2581\u0906\u0908": 9672, "\u2581Ha": 9673, "\u2581Second": 9674, "However": 9675, "\u6570\u636e": 9676, "\u2581Mot": 9677, "classList": 9678, "\u2581\u043e\u043d": 9679, "FAULT": 9680, "oda": 9681, "\u2581pil": 9682, "\u2581\u0d07": 9683, "\u2581Lin": 9684, "\u2581truck": 9685, "\u2581\u0434\u0438": 9686, "\u2581Congress": 9687, "\u2581manage": 9688, "\u2581Mex": 9689, "\u2581alert": 9690, "\u2581advanced": 9691, "article": 9692, "\u2581LIST": 9693, "\u2581intellig": 9694, "eria": 9695, "\u2581explained": 9696, "\u2581feedback": 9697, "terior": 9698, "\u2581Jesus": 9699, "oxy": 9700, "\u2581\u0939\u0942\u0902": 9701, "\u2581alter": 9702, "\u2581intent": 9703, "Phone": 9704, "rich": 9705, "\u2581Console": 9706, "price": 9707, "\u2581deux": 9708, "SIZE": 9709, "\u2581drawn": 9710, "\u2581UI": 9711, "\u2581nur": 9712, "ciples": 9713, "\u2581container": 9714, "tx": 9715, "\u2581\u0440\u0430\u0441": 9716, "\u2581dent": 9717, "\u2581\u0936\u093e": 9718, "\u03c1\u03b1": 9719, "\u0cb0\u0ccd": 9720, "osc": 9721, "\u2581offering": 9722, "Oper": 9723, "\u2581missing": 9724, "\u2581Vi": 9725, "\u2581mixed": 9726, "\u2581kil": 9727, "\u2581cream": 9728, "\u2581vary": 9729, "\u2581pump": 9730, "system": 9731, "\u2581figures": 9732, "\u2581n\u00e0y": 9733, "\u2581laws": 9734, "\u2581weekend": 9735, "\u2581pes": 9736, "\u2581clinical": 9737, "\u0c3e\u0c30\u0c41": 9738, "\u2581\u099c\u09a8": 9739, "define": 9740, "\u2581seu": 9741, "\u2581\u0cac": 9742, "\u2581tail": 9743, "\u2581village": 9744, "none": 9745, "\u2581dia": 9746, "\u2581authority": 9747, "\u043b\u044c\u043a\u043e": 9748, "\u2581tidak": 9749, "\u0cb0\u0cc1": 9750, "\u0627\u0621": 9751, "Sl": 9752, "\u2581Sign": 9753, "\u2581biggest": 9754, "ongo": 9755, "alla": 9756, "\u2581Dev": 9757, "\u09b7\u09cd\u09a0": 9758, "\u2581fue": 9759, "\u2581classic": 9760, "\u043d\u043d\u044f": 9761, "\u2581Pay": 9762, "\u2581experienced": 9763, "\u0219i": 9764, "\u2581acceler": 9765, "\u2581markets": 9766, "Car": 9767, "icians": 9768, "\u2581committee": 9769, "Description": 9770, "zym": 9771, "\u2581filled": 9772, "\u2581tambi\u00e9n": 9773, "*}": 9774, "\u2581excited": 9775, "\u03c4\u03b5": 9776, "TAG": 9777, "\u2581\u092e\u093e\u0928": 9778, "\u2581describe": 9779, "\u2581organizations": 9780, "\u2581nel": 9781, "imation": 9782, "best": 9783, "uls": 9784, "\u2581despite": 9785, "\u2581Mach": 9786, "\u0648\u0632": 9787, "\u0907\u0928": 9788, "Card": 9789, "\u2581Yeah": 9790, "\u0648\u064a": 9791, "\u2581sugar": 9792, "\u2581Run": 9793, "\u2581HT": 9794, "\u2581helping": 9795, "\u2581depends": 9796, "\u30b7\u30e7": 9797, "Spec": 9798, "\u0435\u043d\u0442": 9799, "\u2581teacher": 9800, "\u2581\u091c\u0930": 9801, "eros": 9802, "\u09cd\u0995": 9803, "\u0995\u09cd\u09a4\u09bf": 9804, ")/": 9805, "\u2581improved": 9806, "\u2581\u0622\u0646": 9807, "\u2581evalu": 9808, "\u00e8me": 9809, "ernel": 9810, "\u2581\u0baa\u0bc6": 9811, "\u2581cual": 9812, "\u2581detailed": 9813, "ographic": 9814, "\u2581offset": 9815, "\u03c4\u03b7": 9816, "kom": 9817, "Case": 9818, "\u0627\u0646\u06cc": 9819, "rog": 9820, "\u3055\u3093": 9821, "Hel": 9822, "uta": 9823, "\u2581Ro": 9824, "\u2581errors": 9825, "aine": 9826, "\u2581poster": 9827, "(\"#": 9828, "\u30fc\u30c9": 9829, "\u0ba3\u0bcd": 9830, "\u2581configuration": 9831, "\u2581voltage": 9832, "\u2581Brown": 9833, "\u2581identity": 9834, "\u2581pip": 9835, "inations": 9836, "\u2581CL": 9837, "\u2581\u0111\u1ed9": 9838, "Buffer": 9839, "eras": 9840, "\u2581permit": 9841, "Configuration": 9842, "ismo": 9843, "\u2581arrest": 9844, "\u0e1b\u0e47\u0e19": 9845, "types": 9846, "\u2581\u0930\u094b": 9847, "\u2581\u00c9": 9848, "was": 9849, "GET": 9850, "\u2581links": 9851, "\u2581Federal": 9852, "\u2581Thursday": 9853, "\u2581$(\\": 9854, "\u2581audio": 9855, "blic": 9856, "\u2581starts": 9857, "Cho": 9858, "\u2581Econom": 9859, "apse": 9860, "\u2581Call": 9861, "\u2581older": 9862, "\u2581Tuesday": 9863, "ection": 9864, "\u2581guy": 9865, "\u2581remaining": 9866, "\u2581destroy": 9867, "\u2581\u092c\u0922\u093c": 9868, "about": 9869, "unte": 9870, "\u2581experiences": 9871, "irus": 9872, "$$": 9873, "\u0628\u064a": 9874, "\u2581minor": 9875, "\u2581profit": 9876, "\u2581Robert": 9877, "\u0631\u062f": 9878, "\u2581\u0e15": 9879, "\u0930\u094d\u0921": 9880, "Flo": 9881, "\u2581Profess": 9882, "\u2581replace": 9883, "\u2581island": 9884, "\u2581continues": 9885, "\u2581decisions": 9886, "awn": 9887, "iar": 9888, "\u0441\u0442\u0443": 9889, "uint": 9890, "\u2581fear": 9891, "inline": 9892, "Widget": 9893, "\u2581bot": 9894, "\u2581corner": 9895, "shape": 9896, "\u0943\u0924": 9897, "\u2581ans": 9898, "\u2581beauty": 9899, "after": 9900, "\u2581complic": 9901, "\u2581Tim": 9902, "\u2581hearing": 9903, "\u2581Energy": 9904, "\u2581\u0441\u0442\u043e": 9905, "\u2581substant": 9906, "$/": 9907, "encing": 9908, "\u2581boat": 9909, "eur": 9910, "\u2581branch": 9911, "\u2581election": 9912, "auto": 9913, "}^": 9914, "\u2581\u09ac\u09c7": 9915, "\u2581\u0646\u06c1": 9916, "\u2581grass": 9917, "\u2581split": 9918, "\u2581mere": 9919, "\u2581Once": 9920, "\u2581\u0aac": 9921, "\u2581wearing": 9922, "cou": 9923, "\u2581\u0906\u0923\u093f": 9924, "iste": 9925, "cas": 9926, "\u2581\u0995\u09bf\u099b\u09c1": 9927, "\u2581AT": 9928, "\u2581Like": 9929, "\u0644\u0649": 9930, "\u2581\u03c4\u03bf": 9931, "\u0bb3\u0bc1": 9932, "friend": 9933, "\u30f3\u30c8": 9934, "\u2581patterns": 9935, "phen": 9936, "\u2581revealed": 9937, "\u2581injury": 9938, "\u2581technique": 9939, "\u2581Cook": 9940, "\u2581recorded": 9941, "fire": 9942, "\u2581AP": 9943, "template": 9944, "\u2581React": 9945, "'>": 9946, "\u2581Apple": 9947, "\u2581probability": 9948, "\u2581chosen": 9949, "ukan": 9950, "\u2581segment": 9951, "\u2581spaces": 9952, "\u2581Kar": 9953, "\u2581Str": 9954, "\u2581Sche": 9955, "chaft": 9956, "depend": 9957, "\u2581consistent": 9958, "iert": 9959, "\u2581comparison": 9960, "zz": 9961, "\u2581jur": 9962, "\u2581Their": 9963, "gers": 9964, "swers": 9965, "\u2581tout": 9966, "sten": 9967, "\u0142a": 9968, "\u0ba4\u0bcd": 9969, "\u2581\u0935\u094b": 9970, "\u2581studied": 9971, "ograf": 9972, "\u092b\u0940": 9973, "weet": 9974, "\u2581Fort": 9975, "\u0432\u0442\u043e": 9976, "\u06cc\u0634": 9977, "AK": 9978, "\u2581cities": 9979, "\u2581extension": 9980, "\u2581Card": 9981, "DI": 9982, "assign": 9983, "\u2581\u0939\u094b\u0924\u0947": 9984, "iem": 9985, "ARY": 9986, "\u2581pin": 9987, "\u2581pert": 9988, "\u2581kid": 9989, "ekt": 9990, "\u0433\u0434\u0430": 9991, "\u2581African": 9992, "\u015bci": 9993, "\u2581relationships": 9994, "\u2581truly": 9995, "\u2581Make": 9996, "\u0e48\u0e07": 9997, "\u2581audience": 9998, "\u2581surg": 9999, "\u0ba4\u0bcd\u0ba4\u0bbf\u0bb2\u0bcd": 10000, "\u2581Ho": 10001, "\u2581retail": 10002, "\u06cc\u062a": 10003, "kit": 10004, "Sm": 10005, "\u2581Comput": 10006, "\u2581soc": 10007, "\u0e35\u0e49": 10008, "DO": 10009, "\u1ea3n": 10010, "Unit": 10011, "\u2581seemed": 10012, "\u2581Wood": 10013, "%,": 10014, "\u2581instrument": 10015, "\u2581Ter": 10016, "\u092a\u0941\u0930": 10017, "ifts": 10018, "\u0915\u094b\u0902": 10019, "\u0d1f\u0d46": 10020, "\u2581witness": 10021, "\u2581climate": 10022, "nic": 10023, "}}{\\": 10024, "semantics": 10025, "\u2581\u0906\u092a\u0915\u093e": 10026, "ptr": 10027, "\u2581county": 10028, "\u2581incl": 10029, "\u043e\u043d\u0430": 10030, "\u09cd\u09b8": 10031, "GA": 10032, "ahi": 10033, "\u2581policies": 10034, "\u2581lit": 10035, "ifi": 10036, "\u2581experimental": 10037, "\u2581dell": 10038, "\u03c0\u03bf": 10039, "\u2581vision": 10040, "\u2581battle": 10041, "\u9700\u8981": 10042, "empor": 10043, "\u2581b\u1ea1n": 10044, "\u091c\u094d\u091e": 10045, "\u2581commission": 10046, "\u0928\u093f": 10047, "\u2581recover": 10048, "\u2581\u3067": 10049, "\u2581aren": 10050, "rior": 10051, "\u2581\u0939\u0947": 10052, "\u2581ces": 10053, "\u2581accident": 10054, "\u2581battery": 10055, "\u2581facility": 10056, "\u2581conducted": 10057, "gun": 10058, "\u2581circle": 10059, "\u0ba9\u0bcd\u0bb1\u0bc1": 10060, "\u2581diagram": 10061, "\u2581\u0915\u093f\u0938": 10062, "\u2581Western": 10063, "oret": 10064, "\u2581representation": 10065, "\u2581Wal": 10066, "ICE": 10067, "jor": 10068, "ORD": 10069, "\u2581brother": 10070, "\u043a\u043e\u0439": 10071, "\u2581<!--": 10072, "\u2581cada": 10073, "\u0e21\u0e48": 10074, "\u2581algebra": 10075, "\u2581pred": 10076, "\u2581knows": 10077, "\u2581uno": 10078, "\u2581i\u00e7": 10079, "\u2581fourth": 10080, "Since": 10081, "possible": 10082, "\u2581experiments": 10083, "\u2581inn": 10084, "Cons": 10085, "\u2581appearance": 10086, "CM": 10087, "Sche": 10088, "\u2581Pass": 10089, "\u2581fu": 10090, "\u2581assets": 10091, "\u2581landscape": 10092, "\u2581\u0926\u0947\u0936": 10093, "xc": 10094, "\u2581officer": 10095, "ania": 10096, "\u2581Mas": 10097, "matrix": 10098, "\u2581concerned": 10099, "\u043c\u0456": 10100, "strap": 10101, "\u2581crow": 10102, "\u2581videos": 10103, "\u2581\u09ae\u09c7": 10104, "\u2581\u0921\u093e": 10105, "\u2581Uk": 10106, "\u09c1\u09b0\u09c1": 10107, "SET": 10108, "\u0646\u06af": 10109, "\u0635\u0644": 10110, "\u1031\u102c": 10111, "\u2581Mult": 10112, "lie": 10113, "roud": 10114, "\u2581ku": 10115, "\u2581Base": 10116, "\u2581indicated": 10117, "\u0cbf\u0cb8": 10118, "\u2581Wednesday": 10119, "\u2581einer": 10120, "III": 10121, "\u0646\u06cc": 10122, "\u0b95\u0bcd\u0b95\u0bc1\u0bae\u0bcd": 10123, "WS": 10124, "\u2581\u09b8\u09b9": 10125, "\u0e43\u0e2b": 10126, "\u2581crim": 10127, "\u2581indicate": 10128, "eh": 10129, "\u2581\u091c\u093e\u090f\u0917\u093e": 10130, "\uc2b5\ub2c8\ub2e4": 10131, "\u2581novel": 10132, "\u00ednh": 10133, "\u2581boundary": 10134, "\u2581wine": 10135, "\u2581displ": 10136, "\u2581cv": 10137, "cluded": 10138, "\u2581DNA": 10139, "shop": 10140, "fall": 10141, "\u2581installed": 10142, "replace": 10143, "\u2581favour": 10144, "\u0948\u0928\u0932": 10145, "ugh": 10146, "\u2581\u0627\u0644\u0642": 10147, "oster": 10148, "\u2581invent": 10149, "Sign": 10150, "\u2581interpret": 10151, "\u2581Enter": 10152, "\u2581plas": 10153, "\u2581practices": 10154, "\u2581nine": 10155, "\u2581Russia": 10156, "\u09bf\u09af\u09bc\u09c7": 10157, "eti": 10158, "uke": 10159, "\u2581capac": 10160, "\u2581stretch": 10161, "bas": 10162, "\u2581lots": 10163, "\u2581desde": 10164, "\u2581scheme": 10165, "\u2581stack": 10166, "\u2581depending": 10167, "\u2581iter": 10168, "\u2581Prote": 10169, "\u2581Real": 10170,
[...]
